// Auto-generated QAT TensorFlow Lite Model Array

#ifndef MODEL_H
#define MODEL_H

const unsigned char sine_model[] = {
  0x1c, 0x00, 0x00, 0x00, 0x54, 0x46, 0x4c, 0x33, 0x14, 0x00, 0x20, 0x00,
  0x1c, 0x00, 0x18, 0x00, 0x14, 0x00, 0x10, 0x00, 0x0c, 0x00, 0x00, 0x00,
  0x08, 0x00, 0x04, 0x00, 0x14, 0x00, 0x00, 0x00, 0x1c, 0x00, 0x00, 0x00,
  0x8c, 0x00, 0x00, 0x00, 0xe4, 0x00, 0x00, 0x00, 0xc4, 0x0a, 0x00, 0x00,
  0xd4, 0x0a, 0x00, 0x00, 0x00, 0x19, 0x00, 0x00, 0x03, 0x00, 0x00, 0x00,
  0x01, 0x00, 0x00, 0x00, 0x04, 0x00, 0x00, 0x00, 0xe2, 0xf4, 0xff, 0xff,
  0x0c, 0x00, 0x00, 0x00, 0x1c, 0x00, 0x00, 0x00, 0x40, 0x00, 0x00, 0x00,
  0x0f, 0x00, 0x00, 0x00, 0x73, 0x65, 0x72, 0x76, 0x69, 0x6e, 0x67, 0x5f,
  0x64, 0x65, 0x66, 0x61, 0x75, 0x6c, 0x74, 0x00, 0x01, 0x00, 0x00, 0x00,
  0x04, 0x00, 0x00, 0x00, 0x90, 0xff, 0xff, 0xff, 0x11, 0x00, 0x00, 0x00,
  0x04, 0x00, 0x00, 0x00, 0x0d, 0x00, 0x00, 0x00, 0x71, 0x75, 0x61, 0x6e,
  0x74, 0x5f, 0x64, 0x65, 0x6e, 0x73, 0x65, 0x5f, 0x34, 0x00, 0x00, 0x00,
  0x01, 0x00, 0x00, 0x00, 0x04, 0x00, 0x00, 0x00, 0x26, 0xf6, 0xff, 0xff,
  0x04, 0x00, 0x00, 0x00, 0x0b, 0x00, 0x00, 0x00, 0x64, 0x65, 0x6e, 0x73,
  0x65, 0x5f, 0x69, 0x6e, 0x70, 0x75, 0x74, 0x00, 0x02, 0x00, 0x00, 0x00,
  0x34, 0x00, 0x00, 0x00, 0x04, 0x00, 0x00, 0x00, 0xdc, 0xff, 0xff, 0xff,
  0x14, 0x00, 0x00, 0x00, 0x04, 0x00, 0x00, 0x00, 0x13, 0x00, 0x00, 0x00,
  0x43, 0x4f, 0x4e, 0x56, 0x45, 0x52, 0x53, 0x49, 0x4f, 0x4e, 0x5f, 0x4d,
  0x45, 0x54, 0x41, 0x44, 0x41, 0x54, 0x41, 0x00, 0x08, 0x00, 0x0c, 0x00,
  0x08, 0x00, 0x04, 0x00, 0x08, 0x00, 0x00, 0x00, 0x13, 0x00, 0x00, 0x00,
  0x04, 0x00, 0x00, 0x00, 0x13, 0x00, 0x00, 0x00, 0x6d, 0x69, 0x6e, 0x5f,
  0x72, 0x75, 0x6e, 0x74, 0x69, 0x6d, 0x65, 0x5f, 0x76, 0x65, 0x72, 0x73,
  0x69, 0x6f, 0x6e, 0x00, 0x15, 0x00, 0x00, 0x00, 0xdc, 0x09, 0x00, 0x00,
  0xd4, 0x09, 0x00, 0x00, 0xcc, 0x09, 0x00, 0x00, 0x5c, 0x09, 0x00, 0x00,
  0xc4, 0x08, 0x00, 0x00, 0xbc, 0x08, 0x00, 0x00, 0xac, 0x04, 0x00, 0x00,
  0x1c, 0x04, 0x00, 0x00, 0x14, 0x04, 0x00, 0x00, 0x04, 0x02, 0x00, 0x00,
  0xb4, 0x01, 0x00, 0x00, 0xac, 0x01, 0x00, 0x00, 0x1c, 0x01, 0x00, 0x00,
  0xec, 0x00, 0x00, 0x00, 0xe4, 0x00, 0x00, 0x00, 0xc4, 0x00, 0x00, 0x00,
  0xac, 0x00, 0x00, 0x00, 0xa4, 0x00, 0x00, 0x00, 0x9c, 0x00, 0x00, 0x00,
  0x7c, 0x00, 0x00, 0x00, 0x04, 0x00, 0x00, 0x00, 0xf2, 0xf6, 0xff, 0xff,
  0x04, 0x00, 0x00, 0x00, 0x68, 0x00, 0x00, 0x00, 0x10, 0x00, 0x00, 0x00,
  0x00, 0x00, 0x00, 0x00, 0x08, 0x00, 0x0e, 0x00, 0x08, 0x00, 0x04, 0x00,
  0x08, 0x00, 0x00, 0x00, 0x10, 0x00, 0x00, 0x00, 0x2c, 0x00, 0x00, 0x00,
  0x00, 0x00, 0x06, 0x00, 0x08, 0x00, 0x04, 0x00, 0x06, 0x00, 0x00, 0x00,
  0x04, 0x00, 0x00, 0x00, 0x02, 0x00, 0x00, 0x00, 0xeb, 0x03, 0x00, 0x00,
  0xd0, 0x07, 0x00, 0x00, 0x0c, 0x00, 0x18, 0x00, 0x14, 0x00, 0x10, 0x00,
  0x0c, 0x00, 0x04, 0x00, 0x0c, 0x00, 0x00, 0x00, 0x49, 0xfc, 0xe2, 0x7a,
  0x89, 0xd6, 0xe8, 0x43, 0x02, 0x00, 0x00, 0x00, 0x02, 0x00, 0x00, 0x00,
  0x04, 0x00, 0x00, 0x00, 0x06, 0x00, 0x00, 0x00, 0x32, 0x2e, 0x32, 0x31,
  0x2e, 0x30, 0x00, 0x00, 0x66, 0xf7, 0xff, 0xff, 0x04, 0x00, 0x00, 0x00,
  0x10, 0x00, 0x00, 0x00, 0x31, 0x2e, 0x31, 0x34, 0x2e, 0x30, 0x00, 0x00,
  0x00, 0x00, 0x00, 0x00, 0x00, 0x00, 0x00, 0x00, 0xf8, 0xe8, 0xff, 0xff,
  0xfc, 0xe8, 0xff, 0xff, 0x8a, 0xf7, 0xff, 0xff, 0x04, 0x00, 0x00, 0x00,
  0x08, 0x00, 0x00, 0x00, 0xd6, 0xff, 0xff, 0xff, 0x22, 0x00, 0x00, 0x00,
  0x9e, 0xf7, 0xff, 0xff, 0x04, 0x00, 0x00, 0x00, 0x10, 0x00, 0x00, 0x00,
  0x35, 0x46, 0xd9, 0x88, 0x6f, 0x51, 0x4f, 0x49, 0xbf, 0x0c, 0x28, 0x77,
  0x19, 0x81, 0xe3, 0x49, 0x30, 0xe9, 0xff, 0xff, 0xbe, 0xf7, 0xff, 0xff,
  0x04, 0x00, 0x00, 0x00, 0x20, 0x00, 0x00, 0x00, 0xeb, 0xff, 0xff, 0xff,
  0xf5, 0xff, 0xff, 0xff, 0x3a, 0x00, 0x00, 0x00, 0x2c, 0x00, 0x00, 0x00,
  0x02, 0x00, 0x00, 0x00, 0xeb, 0xff, 0xff, 0xff, 0xeb, 0xff, 0xff, 0xff,
  0x15, 0x00, 0x00, 0x00, 0xea, 0xf7, 0xff, 0xff, 0x04, 0x00, 0x00, 0x00,
  0x80, 0x00, 0x00, 0x00, 0x0c, 0x00, 0x02, 0xfb, 0x13, 0xee, 0xec, 0x12,
  0x03, 0x12, 0x10, 0x1b, 0x0f, 0x0f, 0xf6, 0xe2, 0xe0, 0x21, 0x0a, 0x08,
  0xfc, 0x23, 0x07, 0xe7, 0xe9, 0xf6, 0x0a, 0x09, 0xf2, 0xfd, 0xf8, 0xe7,
  0x61, 0x16, 0x52, 0x0d, 0x51, 0x64, 0x08, 0x3a, 0x14, 0x07, 0x1d, 0x1c,
  0x3f, 0x62, 0x7e, 0x7f, 0x1c, 0xf9, 0xd9, 0xc7, 0x0e, 0x1d, 0xee, 0xe3,
  0x06, 0xff, 0xe1, 0xdf, 0x0a, 0xf3, 0x13, 0x01, 0x05, 0xf0, 0xfd, 0xe6,
  0x09, 0x14, 0xf4, 0xf7, 0xf1, 0x06, 0xf8, 0xf9, 0xf8, 0x12, 0xf9, 0xfb,
  0xff, 0x0f, 0x07, 0xf2, 0xfe, 0xf3, 0xee, 0x04, 0x13, 0xee, 0x02, 0x19,
  0x13, 0x1a, 0x00, 0x04, 0xf7, 0xf6, 0xfa, 0x04, 0x1c, 0xe9, 0xff, 0x04,
  0x0c, 0xf9, 0xfd, 0x1b, 0xf7, 0x09, 0x03, 0xdc, 0x09, 0x02, 0xf0, 0x16,
  0xf3, 0x1f, 0x00, 0xf1, 0xfe, 0xf6, 0x24, 0x12, 0x20, 0x07, 0x12, 0x0a,
  0xec, 0xe9, 0xff, 0xff, 0x7a, 0xf8, 0xff, 0xff, 0x04, 0x00, 0x00, 0x00,
  0x40, 0x00, 0x00, 0x00, 0xca, 0x00, 0x00, 0x00, 0xd3, 0xff, 0xff, 0xff,
  0xe6, 0xff, 0xff, 0xff, 0xe6, 0xff, 0xff, 0xff, 0x3d, 0x00, 0x00, 0x00,
  0xad, 0x00, 0x00, 0x00, 0xed, 0xff, 0xff, 0xff, 0xe2, 0xff, 0xff, 0xff,
  0xa7, 0xff, 0xff, 0xff, 0xfd, 0xff, 0xff, 0xff, 0xed, 0xff, 0xff, 0xff,
  0x72, 0xff, 0xff, 0xff, 0x6c, 0x00, 0x00, 0x00, 0xc8, 0x00, 0x00, 0x00,
  0xa2, 0x00, 0x00, 0x00, 0x91, 0x00, 0x00, 0x00, 0xc6, 0xf8, 0xff, 0xff,
  0x04, 0x00, 0x00, 0x00, 0x00, 0x02, 0x00, 0x00, 0xf7, 0x03, 0x03, 0x09,
  0x01, 0x07, 0xea, 0x01, 0xf4, 0x13, 0xf8, 0x09, 0x03, 0xfa, 0x16, 0x15,
  0xf1, 0xf5, 0x08, 0x03, 0xe7, 0xf5, 0xed, 0xf0, 0xfc, 0xfc, 0xfc, 0x01,
  0x09, 0x00, 0xd6, 0x04, 0x0d, 0x12, 0x06, 0x18, 0xf0, 0xfe, 0xfb, 0xfd,
  0x0d, 0x09, 0xfb, 0xf6, 0xfd, 0xf4, 0xf5, 0xfb, 0x0d, 0x0b, 0xf5, 0xf4,
  0xfe, 0x13, 0x07, 0x0a, 0x0b, 0xf3, 0xf0, 0xf8, 0x10, 0xfc, 0x10, 0xf6,
  0x0b, 0xfb, 0xff, 0x18, 0x10, 0xf5, 0xd8, 0x0a, 0x0e, 0x14, 0x0b, 0xf9,
  0xf5, 0xf4, 0x13, 0x09, 0xf9, 0xf4, 0xfe, 0x09, 0xcc, 0xe3, 0xfd, 0xfb,
  0x0d, 0x0f, 0x0b, 0xfc, 0xf0, 0x0c, 0xfc, 0x0c, 0xf7, 0x0e, 0x0c, 0xf9,
  0xfe, 0xf1, 0xfd, 0x06, 0x01, 0xf2, 0x08, 0xf5, 0x0d, 0x0c, 0xf6, 0x01,
  0x08, 0x00, 0xff, 0xfe, 0xf6, 0x0b, 0xfd, 0xfa, 0x03, 0xf7, 0x06, 0x0d,
  0x0f, 0xeb, 0x10, 0xfc, 0x13, 0x17, 0x09, 0x13, 0x1c, 0x3f, 0xe6, 0xd6,
  0x17, 0xe1, 0x0d, 0xf6, 0x03, 0x06, 0x0a, 0xfd, 0xfa, 0xff, 0x06, 0x0a,
  0xf4, 0x17, 0x01, 0x05, 0xff, 0xf9, 0x27, 0xfa, 0x11, 0x1d, 0x3e, 0x00,
  0x0c, 0xf0, 0xf6, 0xe4, 0x19, 0x07, 0x03, 0xf8, 0x06, 0xf9, 0xfb, 0xee,
  0xf8, 0x0c, 0x11, 0xf9, 0xef, 0xf4, 0x00, 0x01, 0xff, 0x1f, 0xf3, 0x0e,
  0xf9, 0x0e, 0xf4, 0x03, 0x24, 0xf5, 0x08, 0xf6, 0x07, 0x04, 0xfd, 0xfb,
  0xfe, 0x03, 0xf6, 0x06, 0x0c, 0x01, 0xfe, 0xec, 0xfe, 0xf2, 0xf5, 0xf6,
  0x08, 0x00, 0xf6, 0x0f, 0xf7, 0xff, 0xfe, 0x0d, 0x0e, 0xfb, 0xfc, 0xf8,
  0xfc, 0xf2, 0x12, 0x0f, 0x07, 0xf8, 0xfa, 0xf8, 0x10, 0xe8, 0xc8, 0x26,
  0xff, 0x2f, 0x12, 0x12, 0x08, 0xfa, 0x13, 0x0b, 0x10, 0x0c, 0x0c, 0xf9,
  0xde, 0xce, 0x03, 0x08, 0x08, 0xf4, 0x23, 0x03, 0xc3, 0xfb, 0xc7, 0x06,
  0xe6, 0x0d, 0x0a, 0xf7, 0xf6, 0xce, 0x11, 0xf0, 0x02, 0xf6, 0x01, 0x03,
  0xfd, 0x0d, 0xd9, 0xe4, 0x0e, 0x0d, 0x02, 0x07, 0xf6, 0x05, 0x05, 0x0c,
  0x04, 0x04, 0x07, 0xf4, 0xe6, 0xf8, 0xed, 0xf9, 0x0b, 0xfc, 0xfa, 0x0c,
  0x06, 0x03, 0x07, 0xf3, 0x05, 0xfc, 0xf2, 0xf5, 0x05, 0x0a, 0xef, 0xf3,
  0x07, 0x04, 0x0c, 0x03, 0x02, 0xf1, 0xfa, 0x0f, 0x02, 0xf6, 0xfb, 0x03,
  0xf9, 0x0a, 0x0d, 0x00, 0xf6, 0x10, 0x08, 0x07, 0xf3, 0xf5, 0x05, 0xf6,
  0x0f, 0x09, 0x04, 0xef, 0xf4, 0xfa, 0xf2, 0x07, 0x0a, 0x08, 0x06, 0xf3,
  0x08, 0xfe, 0xf2, 0x03, 0x0a, 0xf5, 0x0a, 0x07, 0x17, 0x07, 0x04, 0xfd,
  0x15, 0x02, 0x04, 0x15, 0x07, 0x18, 0x0b, 0xf0, 0xf9, 0xf3, 0x15, 0x06,
  0xf6, 0xfc, 0xf4, 0xee, 0x0a, 0x0a, 0x02, 0x06, 0x18, 0xfa, 0x0e, 0xf8,
  0x01, 0x01, 0xf5, 0xfe, 0xfc, 0x0d, 0x42, 0x0c, 0xfc, 0x0a, 0x04, 0xfa,
  0x0a, 0x06, 0x04, 0x02, 0xff, 0xfb, 0x10, 0x0d, 0x05, 0x08, 0x0c, 0x04,
  0xfa, 0xf8, 0x0e, 0xf5, 0x07, 0x0a, 0xfd, 0xfb, 0xf4, 0xf3, 0x09, 0x02,
  0x0a, 0x0e, 0xf9, 0xef, 0x63, 0x4d, 0x34, 0x41, 0x76, 0x29, 0x47, 0x1a,
  0x5a, 0x67, 0x6a, 0x23, 0x02, 0xfa, 0x67, 0x71, 0x45, 0xfb, 0x08, 0xef,
  0x3c, 0x40, 0x37, 0x0a, 0x04, 0x76, 0x52, 0x02, 0xf4, 0x35, 0x7f, 0x60,
  0x09, 0x09, 0x0e, 0x24, 0x10, 0x21, 0xf2, 0xf3, 0x03, 0x18, 0x02, 0xfc,
  0x0f, 0xff, 0x16, 0x14, 0xf8, 0xfc, 0xf2, 0x0a, 0xfa, 0x22, 0x03, 0xf2,
  0x09, 0x28, 0x21, 0x01, 0x33, 0xfa, 0x16, 0x11, 0xf8, 0x07, 0xfd, 0x11,
  0xfb, 0xef, 0xbf, 0x18, 0x0a, 0xec, 0xf7, 0x02, 0xf9, 0x0e, 0x27, 0x04,
  0xfb, 0xf5, 0xf4, 0xf7, 0xb8, 0x16, 0xf9, 0x0b, 0xfa, 0x12, 0x1b, 0xf0,
  0x0f, 0x01, 0xcc, 0x0a, 0x48, 0xec, 0xff, 0xff, 0xd6, 0xfa, 0xff, 0xff,
  0x04, 0x00, 0x00, 0x00, 0x80, 0x00, 0x00, 0x00, 0xc8, 0xff, 0xff, 0xff,
  0x2d, 0xff, 0xff, 0xff, 0xc8, 0xfe, 0xff, 0xff, 0x42, 0xff, 0xff, 0xff,
  0x2a, 0x03, 0x00, 0x00, 0xe9, 0xfe, 0xff, 0xff, 0x27, 0xfe, 0xff, 0xff,
  0x49, 0xff, 0xff, 0xff, 0x48, 0xff, 0xff, 0xff, 0x81, 0x01, 0x00, 0x00,
  0xf9, 0xfe, 0xff, 0xff, 0x49, 0x00, 0x00, 0x00, 0xe4, 0xff, 0xff, 0xff,
  0x00, 0x00, 0x00, 0x00, 0x39, 0x05, 0x00, 0x00, 0x15, 0x02, 0x00, 0x00,
  0x30, 0xff, 0xff, 0xff, 0xe4, 0xff, 0xff, 0xff, 0xd5, 0xff, 0xff, 0xff,
  0xe7, 0xff, 0xff, 0xff, 0xff, 0xfd, 0xff, 0xff, 0x8a, 0xff, 0xff, 0xff,
  0xf1, 0xfe, 0xff, 0xff, 0xe4, 0xff, 0xff, 0xff, 0xf2, 0xff, 0xff, 0xff,
  0x53, 0x06, 0x00, 0x00, 0xe5, 0x02, 0x00, 0x00, 0x07, 0x00, 0x00, 0x00,
  0xec, 0xfe, 0xff, 0xff, 0xb1, 0xff, 0xff, 0xff, 0x16, 0xff, 0xff, 0xff,
  0xec, 0xff, 0xff, 0xff, 0x62, 0xfb, 0xff, 0xff, 0x04, 0x00, 0x00, 0x00,
  0x00, 0x04, 0x00, 0x00, 0xf6, 0x0e, 0xf6, 0x0b, 0x06, 0x0b, 0x09, 0x18,
  0xfb, 0x07, 0x0e, 0x0d, 0x05, 0x07, 0xfb, 0xf8, 0xfc, 0x0b, 0x12, 0xfd,
  0x00, 0xff, 0xfd, 0x0f, 0x00, 0xfa, 0xfa, 0x0d, 0xfe, 0xf8, 0xf2, 0xf0,
  0xf9, 0xfb, 0xfe, 0xf5, 0xec, 0x01, 0xfb, 0x06, 0x02, 0xf9, 0xf3, 0xfc,
  0xf8, 0x0a, 0xfe, 0x13, 0x05, 0x03, 0xf7, 0xf8, 0xee, 0x05, 0xf7, 0x12,
  0xf2, 0x03, 0xf9, 0x08, 0xeb, 0xff, 0x05, 0xed, 0xfb, 0x06, 0x01, 0x02,
  0xf8, 0x03, 0xf1, 0xfe, 0xf8, 0xf6, 0xf9, 0xf9, 0xf6, 0x06, 0xf3, 0x03,
  0xfc, 0xfc, 0x06, 0x07, 0xf9, 0xff, 0xf9, 0x0c, 0x01, 0x06, 0x05, 0x03,
  0xec, 0x0d, 0x05, 0xf7, 0xec, 0xff, 0xff, 0xf2, 0xeb, 0x0a, 0xf5, 0x00,
  0xf4, 0x0e, 0xee, 0xfe, 0xf6, 0x0a, 0xf4, 0x15, 0xef, 0xf5, 0xfe, 0x00,
  0xfa, 0xf9, 0x02, 0x0b, 0x00, 0x01, 0xf5, 0x06, 0xe7, 0xfc, 0x0d, 0xf2,
  0xfe, 0x05, 0xe3, 0xfa, 0x05, 0x0f, 0xfa, 0x0a, 0x0e, 0x0a, 0xf2, 0xfc,
  0x00, 0xf5, 0x0c, 0xf9, 0xf3, 0x1a, 0x12, 0xf1, 0x1e, 0xf5, 0x04, 0x04,
  0x06, 0xef, 0xf4, 0xf5, 0xf4, 0xf9, 0x02, 0xed, 0xf9, 0x0d, 0xd7, 0xec,
  0xf7, 0xfc, 0xb7, 0x05, 0xf0, 0x05, 0x00, 0x06, 0x08, 0x00, 0xf6, 0x0b,
  0xd5, 0x00, 0x05, 0x03, 0xf5, 0xf3, 0xf5, 0x0f, 0xf5, 0x02, 0xfd, 0x06,
  0xde, 0xdf, 0x06, 0xfe, 0xf7, 0x0a, 0x0d, 0xff, 0xed, 0x1e, 0x02, 0x14,
  0x00, 0x14, 0xf7, 0x14, 0x00, 0x03, 0xfb, 0x0f, 0xf3, 0xfc, 0x1a, 0x07,
  0xec, 0x0f, 0x0d, 0x13, 0xf4, 0x17, 0xff, 0x0e, 0xf8, 0xfd, 0x15, 0xfa,
  0xf3, 0xfa, 0x05, 0x14, 0xed, 0x08, 0xfc, 0xd3, 0xfe, 0x04, 0xf1, 0xfb,
  0xf2, 0xee, 0xf9, 0x16, 0xfc, 0xf8, 0xf8, 0x01, 0xf0, 0x15, 0xf4, 0x01,
  0xca, 0x03, 0xfd, 0x05, 0x01, 0x05, 0x0e, 0x05, 0xf5, 0xff, 0xfd, 0x03,
  0xec, 0xfc, 0xf0, 0x00, 0xff, 0x05, 0xff, 0x00, 0xe7, 0x04, 0xf7, 0x05,
  0xef, 0xfb, 0x0b, 0x04, 0xf9, 0xff, 0x05, 0x0b, 0xf3, 0x04, 0x05, 0xf9,
  0xf5, 0x02, 0x03, 0xf0, 0xcc, 0x18, 0x9a, 0x07, 0x20, 0x17, 0xe7, 0xf2,
  0x19, 0x0c, 0x24, 0x0a, 0xfc, 0xfb, 0x06, 0x11, 0x03, 0x1d, 0x16, 0xdf,
  0x19, 0xc7, 0x16, 0x03, 0xe1, 0x12, 0xe1, 0xe5, 0x03, 0xdc, 0xf3, 0xf5,
  0xf8, 0x16, 0x08, 0x08, 0x09, 0x14, 0x0c, 0x0f, 0x07, 0x11, 0xf6, 0x10,
  0xee, 0x1b, 0xfc, 0xff, 0xf2, 0x07, 0x12, 0x05, 0x07, 0x0d, 0xf6, 0x19,
  0x00, 0xfc, 0xfe, 0x11, 0xf1, 0x06, 0x07, 0xf6, 0x09, 0xfa, 0xff, 0xf9,
  0xf5, 0xf1, 0xfa, 0x10, 0xfd, 0x07, 0xef, 0xfc, 0xfa, 0xfc, 0x0a, 0x00,
  0xfa, 0x01, 0xf8, 0x03, 0x02, 0x0b, 0xfb, 0xfc, 0xf9, 0x07, 0xfc, 0x05,
  0x08, 0x03, 0xf9, 0xf8, 0xff, 0x05, 0x09, 0xf4, 0x08, 0x01, 0x01, 0x00,
  0xf4, 0x02, 0xf7, 0xf7, 0xff, 0xf4, 0xf8, 0x01, 0xf7, 0xf9, 0xff, 0x05,
  0xfa, 0x00, 0x03, 0xfb, 0x03, 0xf4, 0x02, 0x01, 0xf4, 0x09, 0xf7, 0x02,
  0x09, 0xfa, 0x03, 0x04, 0x02, 0xf7, 0xf5, 0xf9, 0xf8, 0xf5, 0xf9, 0xf7,
  0xfb, 0xfd, 0xfd, 0x06, 0xfc, 0x02, 0xfc, 0x00, 0x04, 0xfe, 0x08, 0x00,
  0xf6, 0xf8, 0xfa, 0x05, 0xfa, 0x03, 0xfe, 0xf7, 0xfd, 0xff, 0xff, 0xf1,
  0x22, 0xf4, 0x1d, 0x02, 0x17, 0x00, 0x05, 0xfb, 0x05, 0xf6, 0xff, 0x00,
  0x11, 0x26, 0x03, 0xff, 0x21, 0xe8, 0x08, 0x02, 0xf4, 0xfd, 0xe1, 0xf3,
  0x06, 0xf3, 0xf0, 0xf6, 0x0e, 0x09, 0xe5, 0xff, 0x0f, 0x08, 0x1a, 0x01,
  0x25, 0xff, 0x10, 0x12, 0xcf, 0x0a, 0x05, 0x1e, 0xd0, 0x1f, 0x14, 0x0b,
  0x18, 0xf5, 0xec, 0x0b, 0x01, 0xff, 0xf8, 0xf9, 0xe6, 0x28, 0xf8, 0x12,
  0xf5, 0xff, 0x0a, 0xff, 0xf1, 0x0c, 0x07, 0x0f, 0x03, 0xfb, 0x02, 0xf1,
  0xf6, 0x08, 0x03, 0x1a, 0xc8, 0xf6, 0x11, 0x10, 0xff, 0x1b, 0xee, 0x17,
  0xf2, 0x15, 0x0c, 0x08, 0xf5, 0x0d, 0x10, 0xfa, 0xff, 0xf4, 0xf8, 0xf3,
  0x05, 0xfa, 0x08, 0xfa, 0xfb, 0xf9, 0x06, 0x08, 0x00, 0xf2, 0xff, 0xff,
  0xf9, 0xfb, 0xf5, 0xf8, 0x07, 0x09, 0xf9, 0x03, 0xfe, 0x07, 0x09, 0x02,
  0xf6, 0xfb, 0xf6, 0xf8, 0xf5, 0xf7, 0x07, 0xfd, 0xf4, 0x06, 0xfc, 0x05,
  0xf3, 0xfa, 0xf8, 0x03, 0xff, 0xf9, 0xf6, 0x07, 0x01, 0xf6, 0xf8, 0xf9,
  0xf5, 0xfc, 0x07, 0x05, 0x06, 0xf7, 0x06, 0x07, 0x04, 0x03, 0xfa, 0xfc,
  0xfe, 0xf4, 0xf8, 0xfe, 0xfb, 0xfe, 0x04, 0x05, 0x08, 0x01, 0x01, 0xf7,
  0xff, 0x00, 0xf4, 0x05, 0xfb, 0x02, 0x09, 0x02, 0xf5, 0xf9, 0x04, 0xf3,
  0x00, 0xfb, 0x0a, 0xfa, 0xf7, 0x0b, 0xf9, 0xf9, 0xf6, 0x1b, 0xfd, 0xfe,
  0xf9, 0x19, 0xf9, 0x06, 0xfa, 0x0a, 0x07, 0x07, 0xfd, 0x0c, 0x04, 0x14,
  0xf5, 0xf6, 0x18, 0x0e, 0xef, 0x12, 0xe9, 0x11, 0x05, 0xfe, 0x03, 0x15,
  0xf0, 0xf4, 0x0e, 0x00, 0xf2, 0x04, 0xfa, 0xe7, 0xe8, 0x11, 0xf4, 0xc0,
  0x03, 0x01, 0xf3, 0x0a, 0xf3, 0xfc, 0xfb, 0x1c, 0xf7, 0x00, 0x04, 0x81,
  0x00, 0x00, 0xf7, 0x02, 0xe5, 0xf2, 0xed, 0xeb, 0xf6, 0x0d, 0x11, 0xd7,
  0x01, 0xf9, 0x07, 0x01, 0xf6, 0x06, 0xfb, 0x09, 0xf6, 0x06, 0xf9, 0x06,
  0xf3, 0x0d, 0xf4, 0x12, 0xf3, 0x00, 0xf5, 0xfc, 0xe8, 0xfe, 0x02, 0x01,
  0xfa, 0xf4, 0x05, 0x02, 0xee, 0x00, 0xfb, 0x03, 0xfc, 0xf4, 0x04, 0x06,
  0xf9, 0xf5, 0x00, 0xfb, 0xf9, 0xf7, 0x07, 0xfb, 0x04, 0x04, 0x06, 0x06,
  0x03, 0x03, 0xfd, 0xf5, 0xfd, 0x08, 0xfc, 0x0a, 0xfa, 0xf9, 0xfb, 0xf6,
  0x06, 0xf3, 0xf7, 0x01, 0xf9, 0xfe, 0xf6, 0x02, 0xfa, 0xf5, 0x04, 0xf8,
  0x02, 0xf3, 0xf8, 0x03, 0xf4, 0xfa, 0x00, 0xf7, 0xf9, 0x04, 0x09, 0xfb,
  0x04, 0x01, 0xfc, 0xfc, 0x02, 0xfd, 0x0b, 0xf9, 0x02, 0xff, 0xfd, 0xfc,
  0x0d, 0x2b, 0xfd, 0xf9, 0x41, 0x2d, 0x30, 0x0c, 0x36, 0x23, 0x03, 0x32,
  0x24, 0x1b, 0xf7, 0x2c, 0xf2, 0x4e, 0x2c, 0xfe, 0x4b, 0xfe, 0x17, 0x24,
  0x00, 0x05, 0x0e, 0x08, 0x22, 0x10, 0x0c, 0x21, 0x02, 0xfa, 0xee, 0xf5,
  0x17, 0x01, 0x05, 0xfb, 0x11, 0xf0, 0xfd, 0xf3, 0xfa, 0x03, 0x03, 0x01,
  0xf9, 0x1f, 0x09, 0x08, 0x27, 0xee, 0x05, 0x0d, 0x12, 0xf9, 0xfe, 0x03,
  0x07, 0x14, 0xea, 0xfa, 0xfc, 0xfb, 0xff, 0xfa, 0xfd, 0xfd, 0xfb, 0xfb,
  0x08, 0xf9, 0x05, 0x03, 0xf3, 0xfb, 0x07, 0xf3, 0x10, 0xfd, 0xf8, 0xff,
  0x08, 0xfb, 0xff, 0xf1, 0xfc, 0x05, 0x07, 0xff, 0x08, 0xfc, 0xf8, 0xff,
  0xfb, 0x0a, 0xfb, 0x0e, 0xe8, 0x0c, 0xe4, 0x07, 0xf3, 0xfe, 0xfb, 0xff,
  0xd9, 0x14, 0xff, 0x1d, 0xfa, 0xf7, 0x07, 0xfc, 0xf1, 0x0a, 0x01, 0x0d,
  0xfb, 0x03, 0x03, 0x01, 0xce, 0x04, 0x03, 0xfd, 0x02, 0xf6, 0xff, 0x0a,
  0xf3, 0xf7, 0xf4, 0x09, 0xf4, 0x01, 0xed, 0xfe, 0x02, 0x11, 0xff, 0x05,
  0xea, 0xf5, 0x0a, 0xf7, 0x01, 0x06, 0xfd, 0x11, 0xed, 0x00, 0xf8, 0x0a,
  0xf7, 0xf5, 0x01, 0xf3, 0xfa, 0x13, 0xe8, 0x05, 0x02, 0xfb, 0xe5, 0x0f,
  0xe9, 0x08, 0xe4, 0x06, 0xe6, 0x04, 0x02, 0x06, 0x0f, 0xf7, 0x00, 0xb8,
  0xed, 0xf1, 0x10, 0x02, 0xfa, 0xdc, 0xf7, 0x0b, 0xec, 0xf4, 0x0e, 0xfa,
  0xf5, 0xf8, 0xe4, 0x08, 0xe8, 0x03, 0x00, 0x16, 0x00, 0xf8, 0xf9, 0xfb,
  0xe5, 0x10, 0x04, 0x14, 0xeb, 0x11, 0x0e, 0xff, 0xff, 0xe7, 0x04, 0x06,
  0xfb, 0x03, 0xec, 0x01, 0xeb, 0x05, 0xd3, 0xf3, 0xe4, 0xf0, 0xff, 0xff,
  0x72, 0xff, 0xff, 0xff, 0x04, 0x00, 0x00, 0x00, 0x80, 0x00, 0x00, 0x00,
  0x56, 0x01, 0x00, 0x00, 0xee, 0xfe, 0xff, 0xff, 0xe9, 0xfe, 0xff, 0xff,
  0x5f, 0xfe, 0xff, 0xff, 0x02, 0x05, 0x00, 0x00, 0xd8, 0xfe, 0xff, 0xff,
  0xe0, 0x02, 0x00, 0x00, 0xb8, 0xff, 0xff, 0xff, 0xe0, 0x03, 0x00, 0x00,
  0xe4, 0xfe, 0xff, 0xff, 0x0d, 0x01, 0x00, 0x00, 0x36, 0xff, 0xff, 0xff,
  0xc2, 0x02, 0x00, 0x00, 0x58, 0xff, 0xff, 0xff, 0xc7, 0xff, 0xff, 0xff,
  0xec, 0xfe, 0xff, 0xff, 0x8f, 0x00, 0x00, 0x00, 0x19, 0x05, 0x00, 0x00,
  0x5b, 0xff, 0xff, 0xff, 0x45, 0xff, 0xff, 0xff, 0x01, 0x05, 0x00, 0x00,
  0x67, 0xfe, 0xff, 0xff, 0x25, 0xff, 0xff, 0xff, 0x5b, 0xff, 0xff, 0xff,
  0x2f, 0x00, 0x00, 0x00, 0x81, 0x00, 0x00, 0x00, 0xa4, 0xfd, 0xff, 0xff,
  0xee, 0xff, 0xff, 0xff, 0x68, 0x02, 0x00, 0x00, 0x36, 0x01, 0x00, 0x00,
  0xed, 0xfd, 0xff, 0xff, 0x4c, 0x01, 0x00, 0x00, 0x00, 0x00, 0x06, 0x00,
  0x08, 0x00, 0x04, 0x00, 0x06, 0x00, 0x00, 0x00, 0x04, 0x00, 0x00, 0x00,
  0x60, 0x00, 0x00, 0x00, 0xab, 0xf4, 0x0f, 0x7d, 0x0f, 0x07, 0x22, 0xfc,
  0xe7, 0x0a, 0xf5, 0x00, 0x14, 0x12, 0xfe, 0x7f, 0xf1, 0x0a, 0x13, 0xfd,
  0xfb, 0x48, 0x02, 0xee, 0x29, 0xeb, 0x00, 0x5f, 0x06, 0x04, 0xda, 0xf3,
  0xff, 0x6f, 0x0a, 0x08, 0xe2, 0x04, 0x2f, 0x45, 0x04, 0xfd, 0xfa, 0xff,
  0xff, 0x57, 0xf5, 0x0a, 0xcc, 0x17, 0xee, 0x44, 0x00, 0xfa, 0x66, 0x09,
  0xff, 0x35, 0xf6, 0xfe, 0x25, 0x01, 0xff, 0x33, 0x04, 0x05, 0xc9, 0x1f,
  0xf7, 0x4d, 0x07, 0xfc, 0xe5, 0x0e, 0x00, 0x3c, 0xf7, 0xf4, 0xd8, 0x0b,
  0x15, 0x42, 0x1f, 0xea, 0xa0, 0xea, 0x16, 0xc6, 0x1d, 0x09, 0x35, 0xf8,
  0x0b, 0xa6, 0xee, 0x1a, 0xe8, 0xf1, 0xff, 0xff, 0xec, 0xf1, 0xff, 0xff,
  0xf0, 0xf1, 0xff, 0xff, 0x0f, 0x00, 0x00, 0x00, 0x4d, 0x4c, 0x49, 0x52,
  0x20, 0x43, 0x6f, 0x6e, 0x76, 0x65, 0x72, 0x74, 0x65, 0x64, 0x2e, 0x00,
  0x01, 0x00, 0x00, 0x00, 0x14, 0x00, 0x00, 0x00, 0x00, 0x00, 0x0e, 0x00,
  0x18, 0x00, 0x14, 0x00, 0x10, 0x00, 0x0c, 0x00, 0x08, 0x00, 0x04, 0x00,
  0x0e, 0x00, 0x00, 0x00, 0x14, 0x00, 0x00, 0x00, 0x1c, 0x00, 0x00, 0x00,
  0xc8, 0x01, 0x00, 0x00, 0xcc, 0x01, 0x00, 0x00, 0xd0, 0x01, 0x00, 0x00,
  0x04, 0x00, 0x00, 0x00, 0x6d, 0x61, 0x69, 0x6e, 0x00, 0x00, 0x00, 0x00,
  0x07, 0x00, 0x00, 0x00, 0x90, 0x01, 0x00, 0x00, 0x40, 0x01, 0x00, 0x00,
  0xf4, 0x00, 0x00, 0x00, 0xa8, 0x00, 0x00, 0x00, 0x6c, 0x00, 0x00, 0x00,
  0x34, 0x00, 0x00, 0x00, 0x10, 0x00, 0x00, 0x00, 0x00, 0x00, 0x0a, 0x00,
  0x10, 0x00, 0x0c, 0x00, 0x08, 0x00, 0x04, 0x00, 0x0a, 0x00, 0x00, 0x00,
  0x0c, 0x00, 0x00, 0x00, 0x10, 0x00, 0x00, 0x00, 0x02, 0x00, 0x00, 0x00,
  0x01, 0x00, 0x00, 0x00, 0x11, 0x00, 0x00, 0x00, 0x01, 0x00, 0x00, 0x00,
  0x10, 0x00, 0x00, 0x00, 0x5a, 0xff, 0xff, 0xff, 0x14, 0x00, 0x00, 0x00,
  0x00, 0x00, 0x00, 0x08, 0x10, 0x00, 0x00, 0x00, 0x14, 0x00, 0x00, 0x00,
  0x01, 0x00, 0x00, 0x00, 0xa8, 0xf2, 0xff, 0xff, 0x01, 0x00, 0x00, 0x00,
  0x10, 0x00, 0x00, 0x00, 0x03, 0x00, 0x00, 0x00, 0x0d, 0x00, 0x00, 0x00,
  0x0e, 0x00, 0x00, 0x00, 0x0f, 0x00, 0x00, 0x00, 0x8e, 0xff, 0xff, 0xff,
  0x14, 0x00, 0x00, 0x00, 0x00, 0x00, 0x00, 0x08, 0x14, 0x00, 0x00, 0x00,
  0x18, 0x00, 0x00, 0x00, 0x01, 0x00, 0x00, 0x00, 0x36, 0xff, 0xff, 0xff,
  0x00, 0x00, 0x00, 0x01, 0x01, 0x00, 0x00, 0x00, 0x0d, 0x00, 0x00, 0x00,
  0x03, 0x00, 0x00, 0x00, 0x0a, 0x00, 0x00, 0x00, 0x0b, 0x00, 0x00, 0x00,
  0x0c, 0x00, 0x00, 0x00, 0xc6, 0xff, 0xff, 0xff, 0x14, 0x00, 0x00, 0x00,
  0x00, 0x00, 0x00, 0x08, 0x14, 0x00, 0x00, 0x00, 0x18, 0x00, 0x00, 0x00,
  0x01, 0x00, 0x00, 0x00, 0x6e, 0xff, 0xff, 0xff, 0x00, 0x00, 0x00, 0x01,
  0x01, 0x00, 0x00, 0x00, 0x0a, 0x00, 0x00, 0x00, 0x03, 0x00, 0x00, 0x00,
  0x07, 0x00, 0x00, 0x00, 0x08, 0x00, 0x00, 0x00, 0x09, 0x00, 0x00, 0x00,
  0x00, 0x00, 0x0e, 0x00, 0x18, 0x00, 0x14, 0x00, 0x10, 0x00, 0x0c, 0x00,
  0x0b, 0x00, 0x04, 0x00, 0x0e, 0x00, 0x00, 0x00, 0x14, 0x00, 0x00, 0x00,
  0x00, 0x00, 0x00, 0x08, 0x14, 0x00, 0x00, 0x00, 0x18, 0x00, 0x00, 0x00,
  0x01, 0x00, 0x00, 0x00, 0xb6, 0xff, 0xff, 0xff, 0x00, 0x00, 0x00, 0x01,
  0x01, 0x00, 0x00, 0x00, 0x07, 0x00, 0x00, 0x00, 0x03, 0x00, 0x00, 0x00,
  0x04, 0x00, 0x00, 0x00, 0x05, 0x00, 0x00, 0x00, 0x06, 0x00, 0x00, 0x00,
  0x00, 0x00, 0x0e, 0x00, 0x1a, 0x00, 0x14, 0x00, 0x10, 0x00, 0x0c, 0x00,
  0x0b, 0x00, 0x04, 0x00, 0x0e, 0x00, 0x00, 0x00, 0x1c, 0x00, 0x00, 0x00,
  0x00, 0x00, 0x00, 0x08, 0x1c, 0x00, 0x00, 0x00, 0x20, 0x00, 0x00, 0x00,
  0x01, 0x00, 0x00, 0x00, 0x00, 0x00, 0x06, 0x00, 0x08, 0x00, 0x07, 0x00,
  0x06, 0x00, 0x00, 0x00, 0x00, 0x00, 0x00, 0x01, 0x01, 0x00, 0x00, 0x00,
  0x04, 0x00, 0x00, 0x00, 0x03, 0x00, 0x00, 0x00, 0x01, 0x00, 0x00, 0x00,
  0x02, 0x00, 0x00, 0x00, 0x03, 0x00, 0x00, 0x00, 0x00, 0x00, 0x0a, 0x00,
  0x0c, 0x00, 0x00, 0x00, 0x08, 0x00, 0x04, 0x00, 0x0a, 0x00, 0x00, 0x00,
  0x08, 0x00, 0x00, 0x00, 0x0c, 0x00, 0x00, 0x00, 0x01, 0x00, 0x00, 0x00,
  0x01, 0x00, 0x00, 0x00, 0x01, 0x00, 0x00, 0x00, 0x00, 0x00, 0x00, 0x00,
  0x01, 0x00, 0x00, 0x00, 0x11, 0x00, 0x00, 0x00, 0x01, 0x00, 0x00, 0x00,
  0x00, 0x00, 0x00, 0x00, 0x12, 0x00, 0x00, 0x00, 0xd0, 0x0b, 0x00, 0x00,
  0x60, 0x0a, 0x00, 0x00, 0x98, 0x09, 0x00, 0x00, 0xf4, 0x08, 0x00, 0x00,
  0x38, 0x08, 0x00, 0x00, 0x84, 0x07, 0x00, 0x00, 0xf8, 0x06, 0x00, 0x00,
  0x34, 0x06, 0x00, 0x00, 0x80, 0x05, 0x00, 0x00, 0xf4, 0x04, 0x00, 0x00,
  0x30, 0x04, 0x00, 0x00, 0x7c, 0x03, 0x00, 0x00, 0xf0, 0x02, 0x00, 0x00,
  0x2c, 0x02, 0x00, 0x00, 0x78, 0x01, 0x00, 0x00, 0x04, 0x01, 0x00, 0x00,
  0x60, 0x00, 0x00, 0x00, 0x04, 0x00, 0x00, 0x00, 0x8e, 0xf4, 0xff, 0xff,
  0x00, 0x00, 0x00, 0x01, 0x14, 0x00, 0x00, 0x00, 0x1c, 0x00, 0x00, 0x00,
  0x1c, 0x00, 0x00, 0x00, 0x12, 0x00, 0x00, 0x00, 0x34, 0x00, 0x00, 0x00,
  0x02, 0x00, 0x00, 0x00, 0xff, 0xff, 0xff, 0xff, 0x02, 0x00, 0x00, 0x00,
  0x78, 0xf4, 0xff, 0xff, 0x19, 0x00, 0x00, 0x00, 0x53, 0x74, 0x61, 0x74,
  0x65, 0x66, 0x75, 0x6c, 0x50, 0x61, 0x72, 0x74, 0x69, 0x74, 0x69, 0x6f,
  0x6e, 0x65, 0x64, 0x43, 0x61, 0x6c, 0x6c, 0x3a, 0x30, 0x00, 0x00, 0x00,
  0x02, 0x00, 0x00, 0x00, 0x01, 0x00, 0x00, 0x00, 0x02, 0x00, 0x00, 0x00,
  0x52, 0xf6, 0xff, 0xff, 0x00, 0x00, 0x00, 0x01, 0x18, 0x00, 0x00, 0x00,
  0x20, 0x00, 0x00, 0x00, 0x3c, 0x00, 0x00, 0x00, 0x11, 0x00, 0x00, 0x00,
  0x00, 0x00, 0x00, 0x09, 0x78, 0x00, 0x00, 0x00, 0x02, 0x00, 0x00, 0x00,
  0xff, 0xff, 0xff, 0xff, 0x02, 0x00, 0x00, 0x00, 0x3c, 0xf6, 0xff, 0xff,
  0x08, 0x00, 0x00, 0x00, 0x10, 0x00, 0x00, 0x00, 0x01, 0x00, 0x00, 0x00,
  0x81, 0xff, 0xff, 0xff, 0xff, 0xff, 0xff, 0xff, 0x01, 0x00, 0x00, 0x00,
  0x4b, 0x4c, 0xcb, 0x3e, 0x40, 0x00, 0x00, 0x00, 0x73, 0x65, 0x71, 0x75,
  0x65, 0x6e, 0x74, 0x69, 0x61, 0x6c, 0x2f, 0x71, 0x75, 0x61, 0x6e, 0x74,
  0x5f, 0x64, 0x65, 0x6e, 0x73, 0x65, 0x5f, 0x34, 0x2f, 0x4d, 0x61, 0x74,
  0x4d, 0x75, 0x6c, 0x3b, 0x73, 0x65, 0x71, 0x75, 0x65, 0x6e, 0x74, 0x69,
  0x61, 0x6c, 0x2f, 0x71, 0x75, 0x61, 0x6e, 0x74, 0x5f, 0x64, 0x65, 0x6e,
  0x73, 0x65, 0x5f, 0x34, 0x2f, 0x42, 0x69, 0x61, 0x73, 0x41, 0x64, 0x64,
  0x00, 0x00, 0x00, 0x00, 0x02, 0x00, 0x00, 0x00, 0x01, 0x00, 0x00, 0x00,
  0x02, 0x00, 0x00, 0x00, 0xb6, 0xf7, 0xff, 0xff, 0x00, 0x00, 0x00, 0x01,
  0x14, 0x00, 0x00, 0x00, 0x34, 0x00, 0x00, 0x00, 0x10, 0x00, 0x00, 0x00,
  0x00, 0x00, 0x00, 0x02, 0x50, 0x00, 0x00, 0x00, 0xcc, 0xf6, 0xff, 0xff,
  0x08, 0x00, 0x00, 0x00, 0x14, 0x00, 0x00, 0x00, 0x01, 0x00, 0x00, 0x00,
  0x00, 0x00, 0x00, 0x00, 0x00, 0x00, 0x00, 0x00, 0x00, 0x00, 0x00, 0x00,
  0x01, 0x00, 0x00, 0x00, 0x1b, 0xd2, 0xb7, 0x3c, 0x20, 0x00, 0x00, 0x00,
  0x73, 0x65, 0x71, 0x75, 0x65, 0x6e, 0x74, 0x69, 0x61, 0x6c, 0x2f, 0x71,
  0x75, 0x61, 0x6e, 0x74, 0x5f, 0x64, 0x65, 0x6e, 0x73, 0x65, 0x5f, 0x34,
  0x2f, 0x42, 0x69, 0x61, 0x73, 0x41, 0x64, 0x64, 0x00, 0x00, 0x00, 0x00,
  0x01, 0x00, 0x00, 0x00, 0x02, 0x00, 0x00, 0x00, 0x26, 0xf8, 0xff, 0xff,
  0x00, 0x00, 0x00, 0x01, 0x14, 0x00, 0x00, 0x00, 0x34, 0x00, 0x00, 0x00,
  0x0f, 0x00, 0x00, 0x00, 0x00, 0x00, 0x00, 0x09, 0x8c, 0x00, 0x00, 0x00,
  0x3c, 0xf7, 0xff, 0xff, 0x08, 0x00, 0x00, 0x00, 0x14, 0x00, 0x00, 0x00,
  0x01, 0x00, 0x00, 0x00, 0x00, 0x00, 0x00, 0x00, 0x00, 0x00, 0x00, 0x00,
  0x00, 0x00, 0x00, 0x00, 0x01, 0x00, 0x00, 0x00, 0x99, 0x28, 0x69, 0x3b,
  0x5f, 0x00, 0x00, 0x00, 0x73, 0x65, 0x71, 0x75, 0x65, 0x6e, 0x74, 0x69,
  0x61, 0x6c, 0x2f, 0x71, 0x75, 0x61, 0x6e, 0x74, 0x5f, 0x64, 0x65, 0x6e,
  0x73, 0x65, 0x5f, 0x34, 0x2f, 0x4d, 0x61, 0x74, 0x4d, 0x75, 0x6c, 0x3b,
  0x73, 0x65, 0x71, 0x75, 0x65, 0x6e, 0x74, 0x69, 0x61, 0x6c, 0x2f, 0x71,
  0x75, 0x61, 0x6e, 0x74, 0x5f, 0x64, 0x65, 0x6e, 0x73, 0x65, 0x5f, 0x34,
  0x2f, 0x4c, 0x61, 0x73, 0x74, 0x56, 0x61, 0x6c, 0x75, 0x65, 0x51, 0x75,
  0x61, 0x6e, 0x74, 0x2f, 0x46, 0x61, 0x6b, 0x65, 0x51, 0x75, 0x61, 0x6e,
  0x74, 0x57, 0x69, 0x74, 0x68, 0x4d, 0x69, 0x6e, 0x4d, 0x61, 0x78, 0x56,
  0x61, 0x72, 0x73, 0x00, 0x02, 0x00, 0x00, 0x00, 0x02, 0x00, 0x00, 0x00,
  0x08, 0x00, 0x00, 0x00, 0x12, 0xf8, 0xff, 0xff, 0x00, 0x00, 0x00, 0x01,
  0x18, 0x00, 0x00, 0x00, 0x20, 0x00, 0x00, 0x00, 0x40, 0x00, 0x00, 0x00,
  0x0e, 0x00, 0x00, 0x00, 0x00, 0x00, 0x00, 0x09, 0x98, 0x00, 0x00, 0x00,
  0x02, 0x00, 0x00, 0x00, 0xff, 0xff, 0xff, 0xff, 0x08, 0x00, 0x00, 0x00,
  0xfc, 0xf7, 0xff, 0xff, 0x08, 0x00, 0x00, 0x00, 0x14, 0x00, 0x00, 0x00,
  0x01, 0x00, 0x00, 0x00, 0x80, 0xff, 0xff, 0xff, 0xff, 0xff, 0xff, 0xff,
  0x00, 0x00, 0x00, 0x00, 0x01, 0x00, 0x00, 0x00, 0x29, 0xd4, 0xc9, 0x40,
  0x5e, 0x00, 0x00, 0x00, 0x73, 0x65, 0x71, 0x75, 0x65, 0x6e, 0x74, 0x69,
  0x61, 0x6c, 0x2f, 0x71, 0x75, 0x61, 0x6e, 0x74, 0x5f, 0x64, 0x65, 0x6e,
  0x73, 0x65, 0x5f, 0x33, 0x2f, 0x4d, 0x61, 0x74, 0x4d, 0x75, 0x6c, 0x3b,
  0x73, 0x65, 0x71, 0x75, 0x65, 0x6e, 0x74, 0x69, 0x61, 0x6c, 0x2f, 0x71,
  0x75, 0x61, 0x6e, 0x74, 0x5f, 0x64, 0x65, 0x6e, 0x73, 0x65, 0x5f, 0x33,
  0x2f, 0x52, 0x65, 0x6c, 0x75, 0x3b, 0x73, 0x65, 0x71, 0x75, 0x65, 0x6e,
  0x74, 0x69, 0x61, 0x6c, 0x2f, 0x71, 0x75, 0x61, 0x6e, 0x74, 0x5f, 0x64,
  0x65, 0x6e, 0x73, 0x65, 0x5f, 0x33, 0x2f, 0x42, 0x69, 0x61, 0x73, 0x41,
  0x64, 0x64, 0x00, 0x00, 0x02, 0x00, 0x00, 0x00, 0x01, 0x00, 0x00, 0x00,
  0x08, 0x00, 0x00, 0x00, 0x96, 0xf9, 0xff, 0xff, 0x00, 0x00, 0x00, 0x01,
  0x14, 0x00, 0x00, 0x00, 0x30, 0x00, 0x00, 0x00, 0x0d, 0x00, 0x00, 0x00,
  0x00, 0x00, 0x00, 0x02, 0x68, 0x00, 0x00, 0x00, 0xac, 0xf8, 0xff, 0xff,
  0x08, 0x00, 0x00, 0x00, 0x10, 0x00, 0x00, 0x00, 0x01, 0x00, 0x00, 0x00,
  0x00, 0x00, 0x00, 0x00, 0x00, 0x00, 0x00, 0x00, 0x01, 0x00, 0x00, 0x00,
  0x04, 0xc9, 0x39, 0x3d, 0x3e, 0x00, 0x00, 0x00, 0x73, 0x65, 0x71, 0x75,
  0x65, 0x6e, 0x74, 0x69, 0x61, 0x6c, 0x2f, 0x71, 0x75, 0x61, 0x6e, 0x74,
  0x5f, 0x64, 0x65, 0x6e, 0x73, 0x65, 0x5f, 0x33, 0x2f, 0x52, 0x65, 0x6c,
  0x75, 0x3b, 0x73, 0x65, 0x71, 0x75, 0x65, 0x6e, 0x74, 0x69, 0x61, 0x6c,
  0x2f, 0x71, 0x75, 0x61, 0x6e, 0x74, 0x5f, 0x64, 0x65, 0x6e, 0x73, 0x65,
  0x5f, 0x33, 0x2f, 0x42, 0x69, 0x61, 0x73, 0x41, 0x64, 0x64, 0x00, 0x00,
  0x01, 0x00, 0x00, 0x00, 0x08, 0x00, 0x00, 0x00, 0x1e, 0xfa, 0xff, 0xff,
  0x00, 0x00, 0x00, 0x01, 0x14, 0x00, 0x00, 0x00, 0x34, 0x00, 0x00, 0x00,
  0x0c, 0x00, 0x00, 0x00, 0x00, 0x00, 0x00, 0x09, 0x8c, 0x00, 0x00, 0x00,
  0x34, 0xf9, 0xff, 0xff, 0x08, 0x00, 0x00, 0x00, 0x14, 0x00, 0x00, 0x00,
  0x01, 0x00, 0x00, 0x00, 0x00, 0x00, 0x00, 0x00, 0x00, 0x00, 0x00, 0x00,
  0x00, 0x00, 0x00, 0x00, 0x01, 0x00, 0x00, 0x00, 0x47, 0x33, 0xb0, 0x3c,
  0x5f, 0x00, 0x00, 0x00, 0x73, 0x65, 0x71, 0x75, 0x65, 0x6e, 0x74, 0x69,
  0x61, 0x6c, 0x2f, 0x71, 0x75, 0x61, 0x6e, 0x74, 0x5f, 0x64, 0x65, 0x6e,
  0x73, 0x65, 0x5f, 0x33, 0x2f, 0x4d, 0x61, 0x74, 0x4d, 0x75, 0x6c, 0x3b,
  0x73, 0x65, 0x71, 0x75, 0x65, 0x6e, 0x74, 0x69, 0x61, 0x6c, 0x2f, 0x71,
  0x75, 0x61, 0x6e, 0x74, 0x5f, 0x64, 0x65, 0x6e, 0x73, 0x65, 0x5f, 0x33,
  0x2f, 0x4c, 0x61, 0x73, 0x74, 0x56, 0x61, 0x6c, 0x75, 0x65, 0x51, 0x75,
  0x61, 0x6e, 0x74, 0x2f, 0x46, 0x61, 0x6b, 0x65, 0x51, 0x75, 0x61, 0x6e,
  0x74, 0x57, 0x69, 0x74, 0x68, 0x4d, 0x69, 0x6e, 0x4d, 0x61, 0x78, 0x56,
  0x61, 0x72, 0x73, 0x00, 0x02, 0x00, 0x00, 0x00, 0x08, 0x00, 0x00, 0x00,
  0x10, 0x00, 0x00, 0x00, 0x0a, 0xfa, 0xff, 0xff, 0x00, 0x00, 0x00, 0x01,
  0x18, 0x00, 0x00, 0x00, 0x20, 0x00, 0x00, 0x00, 0x40, 0x00, 0x00, 0x00,
  0x0b, 0x00, 0x00, 0x00, 0x00, 0x00, 0x00, 0x09, 0x98, 0x00, 0x00, 0x00,
  0x02, 0x00, 0x00, 0x00, 0xff, 0xff, 0xff, 0xff, 0x10, 0x00, 0x00, 0x00,
  0xf4, 0xf9, 0xff, 0xff, 0x08, 0x00, 0x00, 0x00, 0x14, 0x00, 0x00, 0x00,
  0x01, 0x00, 0x00, 0x00, 0x80, 0xff, 0xff, 0xff, 0xff, 0xff, 0xff, 0xff,
  0x00, 0x00, 0x00, 0x00, 0x01, 0x00, 0x00, 0x00, 0x83, 0xf6, 0x06, 0x40,
  0x5e, 0x00, 0x00, 0x00, 0x73, 0x65, 0x71, 0x75, 0x65, 0x6e, 0x74, 0x69,
  0x61, 0x6c, 0x2f, 0x71, 0x75, 0x61, 0x6e, 0x74, 0x5f, 0x64, 0x65, 0x6e,
  0x73, 0x65, 0x5f, 0x32, 0x2f, 0x4d, 0x61, 0x74, 0x4d, 0x75, 0x6c, 0x3b,
  0x73, 0x65, 0x71, 0x75, 0x65, 0x6e, 0x74, 0x69, 0x61, 0x6c, 0x2f, 0x71,
  0x75, 0x61, 0x6e, 0x74, 0x5f, 0x64, 0x65, 0x6e, 0x73, 0x65, 0x5f, 0x32,
  0x2f, 0x52, 0x65, 0x6c, 0x75, 0x3b, 0x73, 0x65, 0x71, 0x75, 0x65, 0x6e,
  0x74, 0x69, 0x61, 0x6c, 0x2f, 0x71, 0x75, 0x61, 0x6e, 0x74, 0x5f, 0x64,
  0x65, 0x6e, 0x73, 0x65, 0x5f, 0x32, 0x2f, 0x42, 0x69, 0x61, 0x73, 0x41,
  0x64, 0x64, 0x00, 0x00, 0x02, 0x00, 0x00, 0x00, 0x01, 0x00, 0x00, 0x00,
  0x10, 0x00, 0x00, 0x00, 0x8e, 0xfb, 0xff, 0xff, 0x00, 0x00, 0x00, 0x01,
  0x14, 0x00, 0x00, 0x00, 0x30, 0x00, 0x00, 0x00, 0x0a, 0x00, 0x00, 0x00,
  0x00, 0x00, 0x00, 0x02, 0x68, 0x00, 0x00, 0x00, 0xa4, 0xfa, 0xff, 0xff,
  0x08, 0x00, 0x00, 0x00, 0x10, 0x00, 0x00, 0x00, 0x01, 0x00, 0x00, 0x00,
  0x00, 0x00, 0x00, 0x00, 0x00, 0x00, 0x00, 0x00, 0x01, 0x00, 0x00, 0x00,
  0x71, 0x46, 0x2f, 0x3c, 0x3e, 0x00, 0x00, 0x00, 0x73, 0x65, 0x71, 0x75,
  0x65, 0x6e, 0x74, 0x69, 0x61, 0x6c, 0x2f, 0x71, 0x75, 0x61, 0x6e, 0x74,
  0x5f, 0x64, 0x65, 0x6e, 0x73, 0x65, 0x5f, 0x32, 0x2f, 0x52, 0x65, 0x6c,
  0x75, 0x3b, 0x73, 0x65, 0x71, 0x75, 0x65, 0x6e, 0x74, 0x69, 0x61, 0x6c,
  0x2f, 0x71, 0x75, 0x61, 0x6e, 0x74, 0x5f, 0x64, 0x65, 0x6e, 0x73, 0x65,
  0x5f, 0x32, 0x2f, 0x42, 0x69, 0x61, 0x73, 0x41, 0x64, 0x64, 0x00, 0x00,
  0x01, 0x00, 0x00, 0x00, 0x10, 0x00, 0x00, 0x00, 0x16, 0xfc, 0xff, 0xff,
  0x00, 0x00, 0x00, 0x01, 0x14, 0x00, 0x00, 0x00, 0x34, 0x00, 0x00, 0x00,
  0x09, 0x00, 0x00, 0x00, 0x00, 0x00, 0x00, 0x09, 0x8c, 0x00, 0x00, 0x00,
  0x2c, 0xfb, 0xff, 0xff, 0x08, 0x00, 0x00, 0x00, 0x14, 0x00, 0x00, 0x00,
  0x01, 0x00, 0x00, 0x00, 0x00, 0x00, 0x00, 0x00, 0x00, 0x00, 0x00, 0x00,
  0x00, 0x00, 0x00, 0x00, 0x01, 0x00, 0x00, 0x00, 0x15, 0x40, 0xbe, 0x3c,
  0x5f, 0x00, 0x00, 0x00, 0x73, 0x65, 0x71, 0x75, 0x65, 0x6e, 0x74, 0x69,
  0x61, 0x6c, 0x2f, 0x71, 0x75, 0x61, 0x6e, 0x74, 0x5f, 0x64, 0x65, 0x6e,
  0x73, 0x65, 0x5f, 0x32, 0x2f, 0x4d, 0x61, 0x74, 0x4d, 0x75, 0x6c, 0x3b,
  0x73, 0x65, 0x71, 0x75, 0x65, 0x6e, 0x74, 0x69, 0x61, 0x6c, 0x2f, 0x71,
  0x75, 0x61, 0x6e, 0x74, 0x5f, 0x64, 0x65, 0x6e, 0x73, 0x65, 0x5f, 0x32,
  0x2f, 0x4c, 0x61, 0x73, 0x74, 0x56, 0x61, 0x6c, 0x75, 0x65, 0x51, 0x75,
  0x61, 0x6e, 0x74, 0x2f, 0x46, 0x61, 0x6b, 0x65, 0x51, 0x75, 0x61, 0x6e,
  0x74, 0x57, 0x69, 0x74, 0x68, 0x4d, 0x69, 0x6e, 0x4d, 0x61, 0x78, 0x56,
  0x61, 0x72, 0x73, 0x00, 0x02, 0x00, 0x00, 0x00, 0x10, 0x00, 0x00, 0x00,
  0x20, 0x00, 0x00, 0x00, 0x02, 0xfc, 0xff, 0xff, 0x00, 0x00, 0x00, 0x01,
  0x18, 0x00, 0x00, 0x00, 0x20, 0x00, 0x00, 0x00, 0x40, 0x00, 0x00, 0x00,
  0x08, 0x00, 0x00, 0x00, 0x00, 0x00, 0x00, 0x09, 0x98, 0x00, 0x00, 0x00,
  0x02, 0x00, 0x00, 0x00, 0xff, 0xff, 0xff, 0xff, 0x20, 0x00, 0x00, 0x00,
  0xec, 0xfb, 0xff, 0xff, 0x08, 0x00, 0x00, 0x00, 0x14, 0x00, 0x00, 0x00,
  0x01, 0x00, 0x00, 0x00, 0x80, 0xff, 0xff, 0xff, 0xff, 0xff, 0xff, 0xff,
  0x00, 0x00, 0x00, 0x00, 0x01, 0x00, 0x00, 0x00, 0x77, 0xd9, 0xeb, 0x3e,
  0x5e, 0x00, 0x00, 0x00, 0x73, 0x65, 0x71, 0x75, 0x65, 0x6e, 0x74, 0x69,
  0x61, 0x6c, 0x2f, 0x71, 0x75, 0x61, 0x6e, 0x74, 0x5f, 0x64, 0x65, 0x6e,
  0x73, 0x65, 0x5f, 0x31, 0x2f, 0x4d, 0x61, 0x74, 0x4d, 0x75, 0x6c, 0x3b,
  0x73, 0x65, 0x71, 0x75, 0x65, 0x6e, 0x74, 0x69, 0x61, 0x6c, 0x2f, 0x71,
  0x75, 0x61, 0x6e, 0x74, 0x5f, 0x64, 0x65, 0x6e, 0x73, 0x65, 0x5f, 0x31,
  0x2f, 0x52, 0x65, 0x6c, 0x75, 0x3b, 0x73, 0x65, 0x71, 0x75, 0x65, 0x6e,
  0x74, 0x69, 0x61, 0x6c, 0x2f, 0x71, 0x75, 0x61, 0x6e, 0x74, 0x5f, 0x64,
  0x65, 0x6e, 0x73, 0x65, 0x5f, 0x31, 0x2f, 0x42, 0x69, 0x61, 0x73, 0x41,
  0x64, 0x64, 0x00, 0x00, 0x02, 0x00, 0x00, 0x00, 0x01, 0x00, 0x00, 0x00,
  0x20, 0x00, 0x00, 0x00, 0x86, 0xfd, 0xff, 0xff, 0x00, 0x00, 0x00, 0x01,
  0x14, 0x00, 0x00, 0x00, 0x30, 0x00, 0x00, 0x00, 0x07, 0x00, 0x00, 0x00,
  0x00, 0x00, 0x00, 0x02, 0x68, 0x00, 0x00, 0x00, 0x9c, 0xfc, 0xff, 0xff,
  0x08, 0x00, 0x00, 0x00, 0x10, 0x00, 0x00, 0x00, 0x01, 0x00, 0x00, 0x00,
  0x00, 0x00, 0x00, 0x00, 0x00, 0x00, 0x00, 0x00, 0x01, 0x00, 0x00, 0x00,
  0xd3, 0xef, 0x11, 0x3b, 0x3e, 0x00, 0x00, 0x00, 0x73, 0x65, 0x71, 0x75,
  0x65, 0x6e, 0x74, 0x69, 0x61, 0x6c, 0x2f, 0x71, 0x75, 0x61, 0x6e, 0x74,
  0x5f, 0x64, 0x65, 0x6e, 0x73, 0x65, 0x5f, 0x31, 0x2f, 0x52, 0x65, 0x6c,
  0x75, 0x3b, 0x73, 0x65, 0x71, 0x75, 0x65, 0x6e, 0x74, 0x69, 0x61, 0x6c,
  0x2f, 0x71, 0x75, 0x61, 0x6e, 0x74, 0x5f, 0x64, 0x65, 0x6e, 0x73, 0x65,
  0x5f, 0x31, 0x2f, 0x42, 0x69, 0x61, 0x73, 0x41, 0x64, 0x64, 0x00, 0x00,
  0x01, 0x00, 0x00, 0x00, 0x20, 0x00, 0x00, 0x00, 0x0e, 0xfe, 0xff, 0xff,
  0x00, 0x00, 0x00, 0x01, 0x14, 0x00, 0x00, 0x00, 0x34, 0x00, 0x00, 0x00,
  0x06, 0x00, 0x00, 0x00, 0x00, 0x00, 0x00, 0x09, 0x8c, 0x00, 0x00, 0x00,
  0x24, 0xfd, 0xff, 0xff, 0x08, 0x00, 0x00, 0x00, 0x14, 0x00, 0x00, 0x00,
  0x01, 0x00, 0x00, 0x00, 0x00, 0x00, 0x00, 0x00, 0x00, 0x00, 0x00, 0x00,
  0x00, 0x00, 0x00, 0x00, 0x01, 0x00, 0x00, 0x00, 0xa0, 0xe7, 0xdc, 0x3c,
  0x5f, 0x00, 0x00, 0x00, 0x73, 0x65, 0x71, 0x75, 0x65, 0x6e, 0x74, 0x69,
  0x61, 0x6c, 0x2f, 0x71, 0x75, 0x61, 0x6e, 0x74, 0x5f, 0x64, 0x65, 0x6e,
  0x73, 0x65, 0x5f, 0x31, 0x2f, 0x4d, 0x61, 0x74, 0x4d, 0x75, 0x6c, 0x3b,
  0x73, 0x65, 0x71, 0x75, 0x65, 0x6e, 0x74, 0x69, 0x61, 0x6c, 0x2f, 0x71,
  0x75, 0x61, 0x6e, 0x74, 0x5f, 0x64, 0x65, 0x6e, 0x73, 0x65, 0x5f, 0x31,
  0x2f, 0x4c, 0x61, 0x73, 0x74, 0x56, 0x61, 0x6c, 0x75, 0x65, 0x51, 0x75,
  0x61, 0x6e, 0x74, 0x2f, 0x46, 0x61, 0x6b, 0x65, 0x51, 0x75, 0x61, 0x6e,
  0x74, 0x57, 0x69, 0x74, 0x68, 0x4d, 0x69, 0x6e, 0x4d, 0x61, 0x78, 0x56,
  0x61, 0x72, 0x73, 0x00, 0x02, 0x00, 0x00, 0x00, 0x20, 0x00, 0x00, 0x00,
  0x20, 0x00, 0x00, 0x00, 0xfa, 0xfd, 0xff, 0xff, 0x00, 0x00, 0x00, 0x01,
  0x18, 0x00, 0x00, 0x00, 0x20, 0x00, 0x00, 0x00, 0x3c, 0x00, 0x00, 0x00,
  0x05, 0x00, 0x00, 0x00, 0x00, 0x00, 0x00, 0x09, 0x90, 0x00, 0x00, 0x00,
  0x02, 0x00, 0x00, 0x00, 0xff, 0xff, 0xff, 0xff, 0x20, 0x00, 0x00, 0x00,
  0xe4, 0xfd, 0xff, 0xff, 0x08, 0x00, 0x00, 0x00, 0x10, 0x00, 0x00, 0x00,
  0x01, 0x00, 0x00, 0x00, 0x80, 0xff, 0xff, 0xff, 0xff, 0xff, 0xff, 0xff,
  0x01, 0x00, 0x00, 0x00, 0x31, 0x1f, 0xa9, 0x3d, 0x58, 0x00, 0x00, 0x00,
  0x73, 0x65, 0x71, 0x75, 0x65, 0x6e, 0x74, 0x69, 0x61, 0x6c, 0x2f, 0x71,
  0x75, 0x61, 0x6e, 0x74, 0x5f, 0x64, 0x65, 0x6e, 0x73, 0x65, 0x2f, 0x4d,
  0x61, 0x74, 0x4d, 0x75, 0x6c, 0x3b, 0x73, 0x65, 0x71, 0x75, 0x65, 0x6e,
  0x74, 0x69, 0x61, 0x6c, 0x2f, 0x71, 0x75, 0x61, 0x6e, 0x74, 0x5f, 0x64,
  0x65, 0x6e, 0x73, 0x65, 0x2f, 0x52, 0x65, 0x6c, 0x75, 0x3b, 0x73, 0x65,
  0x71, 0x75, 0x65, 0x6e, 0x74, 0x69, 0x61, 0x6c, 0x2f, 0x71, 0x75, 0x61,
  0x6e, 0x74, 0x5f, 0x64, 0x65, 0x6e, 0x73, 0x65, 0x2f, 0x42, 0x69, 0x61,
  0x73, 0x41, 0x64, 0x64, 0x00, 0x00, 0x00, 0x00, 0x02, 0x00, 0x00, 0x00,
  0x01, 0x00, 0x00, 0x00, 0x20, 0x00, 0x00, 0x00, 0x76, 0xff, 0xff, 0xff,
  0x00, 0x00, 0x00, 0x01, 0x14, 0x00, 0x00, 0x00, 0x34, 0x00, 0x00, 0x00,
  0x04, 0x00, 0x00, 0x00, 0x00, 0x00, 0x00, 0x02, 0x68, 0x00, 0x00, 0x00,
  0x8c, 0xfe, 0xff, 0xff, 0x08, 0x00, 0x00, 0x00, 0x14, 0x00, 0x00, 0x00,
  0x01, 0x00, 0x00, 0x00, 0x00, 0x00, 0x00, 0x00, 0x00, 0x00, 0x00, 0x00,
  0x00, 0x00, 0x00, 0x00, 0x01, 0x00, 0x00, 0x00, 0x54, 0x70, 0x13, 0x3b,
  0x3a, 0x00, 0x00, 0x00, 0x73, 0x65, 0x71, 0x75, 0x65, 0x6e, 0x74, 0x69,
  0x61, 0x6c, 0x2f, 0x71, 0x75, 0x61, 0x6e, 0x74, 0x5f, 0x64, 0x65, 0x6e,
  0x73, 0x65, 0x2f, 0x52, 0x65, 0x6c, 0x75, 0x3b, 0x73, 0x65, 0x71, 0x75,
  0x65, 0x6e, 0x74, 0x69, 0x61, 0x6c, 0x2f, 0x71, 0x75, 0x61, 0x6e, 0x74,
  0x5f, 0x64, 0x65, 0x6e, 0x73, 0x65, 0x2f, 0x42, 0x69, 0x61, 0x73, 0x41,
  0x64, 0x64, 0x00, 0x00, 0x01, 0x00, 0x00, 0x00, 0x20, 0x00, 0x00, 0x00,
  0x00, 0x00, 0x16, 0x00, 0x1c, 0x00, 0x18, 0x00, 0x17, 0x00, 0x10, 0x00,
  0x0c, 0x00, 0x08, 0x00, 0x00, 0x00, 0x00, 0x00, 0x00, 0x00, 0x07, 0x00,
  0x16, 0x00, 0x00, 0x00, 0x00, 0x00, 0x00, 0x01, 0x14, 0x00, 0x00, 0x00,
  0x34, 0x00, 0x00, 0x00, 0x03, 0x00, 0x00, 0x00, 0x00, 0x00, 0x00, 0x09,
  0x88, 0x00, 0x00, 0x00, 0x2c, 0xff, 0xff, 0xff, 0x08, 0x00, 0x00, 0x00,
  0x14, 0x00, 0x00, 0x00, 0x01, 0x00, 0x00, 0x00, 0x00, 0x00, 0x00, 0x00,
  0x00, 0x00, 0x00, 0x00, 0x00, 0x00, 0x00, 0x00, 0x01, 0x00, 0x00, 0x00,
  0xa7, 0xc2, 0x1c, 0x3c, 0x5b, 0x00, 0x00, 0x00, 0x73, 0x65, 0x71, 0x75,
  0x65, 0x6e, 0x74, 0x69, 0x61, 0x6c, 0x2f, 0x71, 0x75, 0x61, 0x6e, 0x74,
  0x5f, 0x64, 0x65, 0x6e, 0x73, 0x65, 0x2f, 0x4d, 0x61, 0x74, 0x4d, 0x75,
  0x6c, 0x3b, 0x73, 0x65, 0x71, 0x75, 0x65, 0x6e, 0x74, 0x69, 0x61, 0x6c,
  0x2f, 0x71, 0x75, 0x61, 0x6e, 0x74, 0x5f, 0x64, 0x65, 0x6e, 0x73, 0x65,
  0x2f, 0x4c, 0x61, 0x73, 0x74, 0x56, 0x61, 0x6c, 0x75, 0x65, 0x51, 0x75,
  0x61, 0x6e, 0x74, 0x2f, 0x46, 0x61, 0x6b, 0x65, 0x51, 0x75, 0x61, 0x6e,
  0x74, 0x57, 0x69, 0x74, 0x68, 0x4d, 0x69, 0x6e, 0x4d, 0x61, 0x78, 0x56,
  0x61, 0x72, 0x73, 0x00, 0x02, 0x00, 0x00, 0x00, 0x20, 0x00, 0x00, 0x00,
  0x03, 0x00, 0x00, 0x00, 0x00, 0x00, 0x16, 0x00, 0x20, 0x00, 0x1c, 0x00,
  0x1b, 0x00, 0x14, 0x00, 0x10, 0x00, 0x0c, 0x00, 0x00, 0x00, 0x00, 0x00,
  0x08, 0x00, 0x07, 0x00, 0x16, 0x00, 0x00, 0x00, 0x00, 0x00, 0x00, 0x01,
  0x18, 0x00, 0x00, 0x00, 0x2c, 0x00, 0x00, 0x00, 0x48, 0x00, 0x00, 0x00,
  0x02, 0x00, 0x00, 0x00, 0x00, 0x00, 0x00, 0x09, 0x2c, 0x01, 0x00, 0x00,
  0x02, 0x00, 0x00, 0x00, 0xff, 0xff, 0xff, 0xff, 0x03, 0x00, 0x00, 0x00,
  0x0c, 0x00, 0x0c, 0x00, 0x00, 0x00, 0x00, 0x00, 0x08, 0x00, 0x04, 0x00,
  0x0c, 0x00, 0x00, 0x00, 0x08, 0x00, 0x00, 0x00, 0x10, 0x00, 0x00, 0x00,
  0x01, 0x00, 0x00, 0x00, 0xab, 0xff, 0xff, 0xff, 0xff, 0xff, 0xff, 0xff,
  0x01, 0x00, 0x00, 0x00, 0xf9, 0xc6, 0x70, 0x3e, 0xeb, 0x00, 0x00, 0x00,
  0x73, 0x65, 0x71, 0x75, 0x65, 0x6e, 0x74, 0x69, 0x61, 0x6c, 0x2f, 0x71,
  0x75, 0x61, 0x6e, 0x74, 0x69, 0x7a, 0x65, 0x5f, 0x6c, 0x61, 0x79, 0x65,
  0x72, 0x2f, 0x41, 0x6c, 0x6c, 0x56, 0x61, 0x6c, 0x75, 0x65, 0x73, 0x51,
  0x75, 0x61, 0x6e, 0x74, 0x69, 0x7a, 0x65, 0x2f, 0x46, 0x61, 0x6b, 0x65,
  0x51, 0x75, 0x61, 0x6e, 0x74, 0x57, 0x69, 0x74, 0x68, 0x4d, 0x69, 0x6e,
  0x4d, 0x61, 0x78, 0x56, 0x61, 0x72, 0x73, 0x3b, 0x73, 0x65, 0x71, 0x75,
  0x65, 0x6e, 0x74, 0x69, 0x61, 0x6c, 0x2f, 0x71, 0x75, 0x61, 0x6e, 0x74,
  0x69, 0x7a, 0x65, 0x5f, 0x6c, 0x61, 0x79, 0x65, 0x72, 0x2f, 0x41, 0x6c,
  0x6c, 0x56, 0x61, 0x6c, 0x75, 0x65, 0x73, 0x51, 0x75, 0x61, 0x6e, 0x74,
  0x69, 0x7a, 0x65, 0x2f, 0x46, 0x61, 0x6b, 0x65, 0x51, 0x75, 0x61, 0x6e,
  0x74, 0x57, 0x69, 0x74, 0x68, 0x4d, 0x69, 0x6e, 0x4d, 0x61, 0x78, 0x56,
  0x61, 0x72, 0x73, 0x2f, 0x52, 0x65, 0x61, 0x64, 0x56, 0x61, 0x72, 0x69,
  0x61, 0x62, 0x6c, 0x65, 0x4f, 0x70, 0x3b, 0x73, 0x65, 0x71, 0x75, 0x65,
  0x6e, 0x74, 0x69, 0x61, 0x6c, 0x2f, 0x71, 0x75, 0x61, 0x6e, 0x74, 0x69,
  0x7a, 0x65, 0x5f, 0x6c, 0x61, 0x79, 0x65, 0x72, 0x2f, 0x41, 0x6c, 0x6c,
  0x56, 0x61, 0x6c, 0x75, 0x65, 0x73, 0x51, 0x75, 0x61, 0x6e, 0x74, 0x69,
  0x7a, 0x65, 0x2f, 0x46, 0x61, 0x6b, 0x65, 0x51, 0x75, 0x61, 0x6e, 0x74,
  0x57, 0x69, 0x74, 0x68, 0x4d, 0x69, 0x6e, 0x4d, 0x61, 0x78, 0x56, 0x61,
  0x72, 0x73, 0x2f, 0x52, 0x65, 0x61, 0x64, 0x56, 0x61, 0x72, 0x69, 0x61,
  0x62, 0x6c, 0x65, 0x4f, 0x70, 0x5f, 0x31, 0x00, 0x02, 0x00, 0x00, 0x00,
  0x01, 0x00, 0x00, 0x00, 0x03, 0x00, 0x00, 0x00, 0x00, 0x00, 0x16, 0x00,
  0x1c, 0x00, 0x18, 0x00, 0x00, 0x00, 0x14, 0x00, 0x10, 0x00, 0x0c, 0x00,
  0x00, 0x00, 0x00, 0x00, 0x08, 0x00, 0x07, 0x00, 0x16, 0x00, 0x00, 0x00,
  0x00, 0x00, 0x00, 0x01, 0x14, 0x00, 0x00, 0x00, 0x20, 0x00, 0x00, 0x00,
  0x20, 0x00, 0x00, 0x00, 0x01, 0x00, 0x00, 0x00, 0x3c, 0x00, 0x00, 0x00,
  0x02, 0x00, 0x00, 0x00, 0xff, 0xff, 0xff, 0xff, 0x03, 0x00, 0x00, 0x00,
  0x04, 0x00, 0x04, 0x00, 0x04, 0x00, 0x00, 0x00, 0x1d, 0x00, 0x00, 0x00,
  0x73, 0x65, 0x72, 0x76, 0x69, 0x6e, 0x67, 0x5f, 0x64, 0x65, 0x66, 0x61,
  0x75, 0x6c, 0x74, 0x5f, 0x64, 0x65, 0x6e, 0x73, 0x65, 0x5f, 0x69, 0x6e,
  0x70, 0x75, 0x74, 0x3a, 0x30, 0x00, 0x00, 0x00, 0x02, 0x00, 0x00, 0x00,
  0x01, 0x00, 0x00, 0x00, 0x03, 0x00, 0x00, 0x00, 0x03, 0x00, 0x00, 0x00,
  0x44, 0x00, 0x00, 0x00, 0x24, 0x00, 0x00, 0x00, 0x04, 0x00, 0x00, 0x00,
  0xf0, 0xff, 0xff, 0xff, 0x06, 0x00, 0x00, 0x00, 0x02, 0x00, 0x00, 0x00,
  0x00, 0x00, 0x00, 0x06, 0x0c, 0x00, 0x10, 0x00, 0x0f, 0x00, 0x00, 0x00,
  0x08, 0x00, 0x04, 0x00, 0x0c, 0x00, 0x00, 0x00, 0x09, 0x00, 0x00, 0x00,
  0x04, 0x00, 0x00, 0x00, 0x00, 0x00, 0x00, 0x09, 0x0c, 0x00, 0x0c, 0x00,
  0x0b, 0x00, 0x00, 0x00, 0x00, 0x00, 0x04, 0x00, 0x0c, 0x00, 0x00, 0x00,
  0x72, 0x00, 0x00, 0x00, 0x00, 0x00, 0x00, 0x72
};

const unsigned int sine_model_len = 6536;

#endif // MODEL_H
