// Auto-generated QAT TensorFlow Lite Model Array

#ifndef MODEL_H
#define MODEL_H

const unsigned char battery_model[] = {
  0x1c, 0x00, 0x00, 0x00, 0x54, 0x46, 0x4c, 0x33, 0x14, 0x00, 0x20, 0x00,
  0x1c, 0x00, 0x18, 0x00, 0x14, 0x00, 0x10, 0x00, 0x0c, 0x00, 0x00, 0x00,
  0x08, 0x00, 0x04, 0x00, 0x14, 0x00, 0x00, 0x00, 0x1c, 0x00, 0x00, 0x00,
  0x8c, 0x00, 0x00, 0x00, 0xe4, 0x00, 0x00, 0x00, 0xc4, 0x0a, 0x00, 0x00,
  0xd4, 0x0a, 0x00, 0x00, 0x00, 0x19, 0x00, 0x00, 0x03, 0x00, 0x00, 0x00,
  0x01, 0x00, 0x00, 0x00, 0x04, 0x00, 0x00, 0x00, 0xe2, 0xf4, 0xff, 0xff,
  0x0c, 0x00, 0x00, 0x00, 0x1c, 0x00, 0x00, 0x00, 0x40, 0x00, 0x00, 0x00,
  0x0f, 0x00, 0x00, 0x00, 0x73, 0x65, 0x72, 0x76, 0x69, 0x6e, 0x67, 0x5f,
  0x64, 0x65, 0x66, 0x61, 0x75, 0x6c, 0x74, 0x00, 0x01, 0x00, 0x00, 0x00,
  0x04, 0x00, 0x00, 0x00, 0x90, 0xff, 0xff, 0xff, 0x11, 0x00, 0x00, 0x00,
  0x04, 0x00, 0x00, 0x00, 0x0d, 0x00, 0x00, 0x00, 0x71, 0x75, 0x61, 0x6e,
  0x74, 0x5f, 0x64, 0x65, 0x6e, 0x73, 0x65, 0x5f, 0x34, 0x00, 0x00, 0x00,
  0x01, 0x00, 0x00, 0x00, 0x04, 0x00, 0x00, 0x00, 0x26, 0xf6, 0xff, 0xff,
  0x04, 0x00, 0x00, 0x00, 0x0b, 0x00, 0x00, 0x00, 0x64, 0x65, 0x6e, 0x73,
  0x65, 0x5f, 0x69, 0x6e, 0x70, 0x75, 0x74, 0x00, 0x02, 0x00, 0x00, 0x00,
  0x34, 0x00, 0x00, 0x00, 0x04, 0x00, 0x00, 0x00, 0xdc, 0xff, 0xff, 0xff,
  0x14, 0x00, 0x00, 0x00, 0x04, 0x00, 0x00, 0x00, 0x13, 0x00, 0x00, 0x00,
  0x43, 0x4f, 0x4e, 0x56, 0x45, 0x52, 0x53, 0x49, 0x4f, 0x4e, 0x5f, 0x4d,
  0x45, 0x54, 0x41, 0x44, 0x41, 0x54, 0x41, 0x00, 0x08, 0x00, 0x0c, 0x00,
  0x08, 0x00, 0x04, 0x00, 0x08, 0x00, 0x00, 0x00, 0x13, 0x00, 0x00, 0x00,
  0x04, 0x00, 0x00, 0x00, 0x13, 0x00, 0x00, 0x00, 0x6d, 0x69, 0x6e, 0x5f,
  0x72, 0x75, 0x6e, 0x74, 0x69, 0x6d, 0x65, 0x5f, 0x76, 0x65, 0x72, 0x73,
  0x69, 0x6f, 0x6e, 0x00, 0x15, 0x00, 0x00, 0x00, 0xdc, 0x09, 0x00, 0x00,
  0xd4, 0x09, 0x00, 0x00, 0xcc, 0x09, 0x00, 0x00, 0x5c, 0x09, 0x00, 0x00,
  0xc4, 0x08, 0x00, 0x00, 0xbc, 0x08, 0x00, 0x00, 0xac, 0x04, 0x00, 0x00,
  0x1c, 0x04, 0x00, 0x00, 0x14, 0x04, 0x00, 0x00, 0x04, 0x02, 0x00, 0x00,
  0xb4, 0x01, 0x00, 0x00, 0xac, 0x01, 0x00, 0x00, 0x1c, 0x01, 0x00, 0x00,
  0xec, 0x00, 0x00, 0x00, 0xe4, 0x00, 0x00, 0x00, 0xc4, 0x00, 0x00, 0x00,
  0xac, 0x00, 0x00, 0x00, 0xa4, 0x00, 0x00, 0x00, 0x9c, 0x00, 0x00, 0x00,
  0x7c, 0x00, 0x00, 0x00, 0x04, 0x00, 0x00, 0x00, 0xf2, 0xf6, 0xff, 0xff,
  0x04, 0x00, 0x00, 0x00, 0x68, 0x00, 0x00, 0x00, 0x10, 0x00, 0x00, 0x00,
  0x00, 0x00, 0x00, 0x00, 0x08, 0x00, 0x0e, 0x00, 0x08, 0x00, 0x04, 0x00,
  0x08, 0x00, 0x00, 0x00, 0x10, 0x00, 0x00, 0x00, 0x2c, 0x00, 0x00, 0x00,
  0x00, 0x00, 0x06, 0x00, 0x08, 0x00, 0x04, 0x00, 0x06, 0x00, 0x00, 0x00,
  0x04, 0x00, 0x00, 0x00, 0x02, 0x00, 0x00, 0x00, 0xeb, 0x03, 0x00, 0x00,
  0xd0, 0x07, 0x00, 0x00, 0x0c, 0x00, 0x18, 0x00, 0x14, 0x00, 0x10, 0x00,
  0x0c, 0x00, 0x04, 0x00, 0x0c, 0x00, 0x00, 0x00, 0x49, 0xfc, 0xe2, 0x7a,
  0x89, 0xd6, 0xe8, 0x43, 0x02, 0x00, 0x00, 0x00, 0x02, 0x00, 0x00, 0x00,
  0x04, 0x00, 0x00, 0x00, 0x06, 0x00, 0x00, 0x00, 0x32, 0x2e, 0x32, 0x31,
  0x2e, 0x30, 0x00, 0x00, 0x66, 0xf7, 0xff, 0xff, 0x04, 0x00, 0x00, 0x00,
  0x10, 0x00, 0x00, 0x00, 0x31, 0x2e, 0x31, 0x34, 0x2e, 0x30, 0x00, 0x00,
  0x00, 0x00, 0x00, 0x00, 0x00, 0x00, 0x00, 0x00, 0xf8, 0xe8, 0xff, 0xff,
  0xfc, 0xe8, 0xff, 0xff, 0x8a, 0xf7, 0xff, 0xff, 0x04, 0x00, 0x00, 0x00,
  0x08, 0x00, 0x00, 0x00, 0x1c, 0x00, 0x00, 0x00, 0x20, 0x00, 0x00, 0x00,
  0x9e, 0xf7, 0xff, 0xff, 0x04, 0x00, 0x00, 0x00, 0x10, 0x00, 0x00, 0x00,
  0x34, 0x6e, 0x72, 0xd3, 0xcb, 0xad, 0x7f, 0xcd, 0x73, 0xac, 0xf8, 0xe6,
  0x9e, 0x69, 0xf8, 0xcf, 0x30, 0xe9, 0xff, 0xff, 0xbe, 0xf7, 0xff, 0xff,
  0x04, 0x00, 0x00, 0x00, 0x20, 0x00, 0x00, 0x00, 0x2d, 0x00, 0x00, 0x00,
  0xf9, 0xff, 0xff, 0xff, 0x2e, 0x00, 0x00, 0x00, 0xdd, 0xff, 0xff, 0xff,
  0xf8, 0xff, 0xff, 0xff, 0x50, 0x00, 0x00, 0x00, 0x39, 0x00, 0x00, 0x00,
  0xfc, 0xff, 0xff, 0xff, 0xea, 0xf7, 0xff, 0xff, 0x04, 0x00, 0x00, 0x00,
  0x80, 0x00, 0x00, 0x00, 0xe2, 0x26, 0xe8, 0x04, 0xd0, 0x2b, 0x11, 0xfb,
  0x1c, 0xcf, 0x0d, 0x16, 0x1f, 0xec, 0xcb, 0xd6, 0xcd, 0x25, 0x05, 0xd5,
  0xd3, 0x01, 0xe4, 0x22, 0x2d, 0xf9, 0xc8, 0xde, 0xe2, 0x2f, 0x06, 0xc9,
  0x0c, 0xfa, 0xfc, 0x44, 0x04, 0x08, 0xaa, 0xcf, 0x23, 0x35, 0x38, 0x1e,
  0xdd, 0xe0, 0x7f, 0xea, 0x23, 0xdd, 0x20, 0xca, 0x01, 0xeb, 0x26, 0xd8,
  0x11, 0x07, 0x1c, 0x00, 0x13, 0x2a, 0x1f, 0x25, 0xfb, 0x1c, 0x2c, 0xe9,
  0xdb, 0xd3, 0xe0, 0x28, 0x33, 0xf6, 0xff, 0xdb, 0xfb, 0x17, 0x01, 0x06,
  0xd5, 0x15, 0x1c, 0x65, 0xfd, 0x1a, 0x2e, 0xda, 0x5a, 0xe5, 0x2f, 0x75,
  0x72, 0x2e, 0x1c, 0xe1, 0x0a, 0x1c, 0xff, 0xfc, 0xd9, 0x10, 0xc9, 0xe0,
  0x1a, 0xe4, 0x27, 0x0b, 0x36, 0xe1, 0x7f, 0xd9, 0x1f, 0x06, 0x29, 0x16,
  0xf4, 0x15, 0xde, 0xe4, 0x0b, 0x1d, 0xe0, 0xda, 0xf4, 0xd2, 0xe2, 0xdd,
  0xec, 0xe9, 0xff, 0xff, 0x7a, 0xf8, 0xff, 0xff, 0x04, 0x00, 0x00, 0x00,
  0x40, 0x00, 0x00, 0x00, 0xaa, 0xff, 0xff, 0xff, 0xdb, 0x00, 0x00, 0x00,
  0xa1, 0xff, 0xff, 0xff, 0xae, 0x01, 0x00, 0x00, 0x00, 0x00, 0x00, 0x00,
  0x15, 0x01, 0x00, 0x00, 0x32, 0x00, 0x00, 0x00, 0xc8, 0xff, 0xff, 0xff,
  0x5d, 0x01, 0x00, 0x00, 0x85, 0xff, 0xff, 0xff, 0x1c, 0x01, 0x00, 0x00,
  0x6f, 0x02, 0x00, 0x00, 0xbe, 0x01, 0x00, 0x00, 0xb3, 0xff, 0xff, 0xff,
  0xa1, 0xff, 0xff, 0xff, 0xb8, 0xff, 0xff, 0xff, 0xc6, 0xf8, 0xff, 0xff,
  0x04, 0x00, 0x00, 0x00, 0x00, 0x02, 0x00, 0x00, 0x06, 0xe8, 0x09, 0x11,
  0x08, 0x1c, 0xef, 0xeb, 0xe6, 0x16, 0xec, 0xfb, 0xfd, 0xf9, 0x14, 0x07,
  0x16, 0x04, 0xe9, 0x1c, 0xfa, 0xe9, 0xe5, 0xf4, 0xf6, 0xf9, 0x02, 0x04,
  0x0f, 0xf8, 0x03, 0xe5, 0xef, 0xed, 0x13, 0xee, 0x1a, 0x31, 0xfc, 0x06,
  0x0a, 0x08, 0xfb, 0x0b, 0x21, 0x1f, 0x02, 0xeb, 0x19, 0xfe, 0x07, 0x00,
  0x03, 0x0f, 0xed, 0x0e, 0x02, 0xfd, 0x13, 0x0b, 0xea, 0xe5, 0x19, 0x0e,
  0xfb, 0xf2, 0x1d, 0xfc, 0x03, 0xfa, 0xef, 0x16, 0x11, 0xf5, 0x11, 0x14,
  0x16, 0xf7, 0x00, 0xf7, 0xec, 0x0e, 0x07, 0x02, 0xf1, 0x1b, 0xee, 0x02,
  0xfe, 0xea, 0x11, 0xf3, 0x08, 0x15, 0xfc, 0xe5, 0x0b, 0x09, 0x05, 0x27,
  0x1a, 0x37, 0x38, 0x03, 0x16, 0x20, 0x2b, 0x13, 0x07, 0x1d, 0xff, 0x2d,
  0xee, 0x18, 0xf1, 0xee, 0x20, 0xe7, 0x28, 0xea, 0x0c, 0xf6, 0xf8, 0xfa,
  0x03, 0xe7, 0x06, 0x0b, 0xec, 0xed, 0xf4, 0xf5, 0x03, 0xec, 0xfc, 0xed,
  0x0f, 0xf4, 0x1a, 0xf1, 0xea, 0xf6, 0xf7, 0x0f, 0xe7, 0xe8, 0xfd, 0x19,
  0xe6, 0xf6, 0xf4, 0xfd, 0x18, 0xf7, 0x0c, 0xfa, 0x1b, 0x18, 0xef, 0xe6,
  0xeb, 0xf4, 0x0b, 0x1b, 0x01, 0x01, 0x26, 0x04, 0x0e, 0x10, 0x10, 0x06,
  0x2b, 0x20, 0x1c, 0x08, 0xfa, 0xea, 0xeb, 0x03, 0xfb, 0xe6, 0x23, 0xf0,
  0xfb, 0xed, 0x12, 0xec, 0x17, 0xf5, 0xfd, 0x1a, 0xcf, 0x04, 0xf1, 0x1a,
  0x18, 0xd9, 0xf1, 0x02, 0x0c, 0xf6, 0x1b, 0xf1, 0x36, 0xfa, 0xf5, 0x0e,
  0x04, 0x0d, 0x13, 0xfe, 0x0a, 0x16, 0xfb, 0xef, 0xea, 0xf3, 0x1f, 0x11,
  0x0c, 0xed, 0x0b, 0x09, 0x07, 0x0d, 0x02, 0x05, 0x0c, 0x0b, 0x0b, 0xed,
  0xe8, 0x12, 0x14, 0xe7, 0x14, 0xec, 0xe8, 0xe8, 0x1b, 0xed, 0x01, 0x04,
  0xee, 0xf6, 0x04, 0xf0, 0xe7, 0xfb, 0x0c, 0xf3, 0x01, 0x16, 0x02, 0x14,
  0xe8, 0xf7, 0xf6, 0x1d, 0x11, 0x19, 0x2f, 0xfd, 0xef, 0x18, 0x07, 0x14,
  0x0f, 0x24, 0x20, 0x19, 0xf3, 0x16, 0xe8, 0x04, 0x1c, 0x05, 0x1e, 0x01,
  0x34, 0x09, 0x2a, 0x0a, 0xf5, 0x00, 0x12, 0x17, 0xfb, 0xe6, 0xe7, 0xf4,
  0xe6, 0x0c, 0x01, 0xe6, 0xee, 0x15, 0x05, 0xef, 0x0e, 0x13, 0x00, 0x04,
  0x17, 0xea, 0x19, 0x01, 0x12, 0xed, 0xea, 0x01, 0xe2, 0xf7, 0x17, 0x0c,
  0x09, 0x06, 0xf4, 0xf5, 0x2a, 0xfa, 0x09, 0x0d, 0x22, 0x14, 0x4b, 0x0c,
  0xfb, 0x1e, 0x08, 0x16, 0xfe, 0x0f, 0x12, 0x05, 0x18, 0xf9, 0xe5, 0xf8,
  0x02, 0x08, 0x22, 0x19, 0x36, 0x07, 0xf7, 0xf5, 0x12, 0xee, 0x15, 0x11,
  0x11, 0xfd, 0xeb, 0x7f, 0x30, 0x70, 0x57, 0xff, 0x1b, 0x36, 0x5c, 0x31,
  0x1d, 0x46, 0x29, 0x51, 0x0a, 0xe8, 0x09, 0xf0, 0x3b, 0xf9, 0x42, 0xf5,
  0x55, 0xfd, 0x40, 0xea, 0xf0, 0x07, 0x0a, 0x49, 0xe7, 0x05, 0x07, 0x36,
  0x1c, 0x38, 0x20, 0x12, 0x28, 0x18, 0x1f, 0x21, 0x16, 0xfd, 0x1a, 0xfb,
  0xea, 0x06, 0xf5, 0xe5, 0x26, 0xed, 0xfe, 0xea, 0x27, 0xe6, 0x19, 0xe6,
  0xf2, 0x14, 0xe8, 0x1a, 0xe7, 0x1a, 0xfa, 0xe9, 0x10, 0x0c, 0xea, 0x01,
  0x12, 0xf4, 0xed, 0x17, 0xec, 0xe2, 0xff, 0x0f, 0x02, 0xed, 0x02, 0x06,
  0x16, 0xfe, 0xe4, 0xf3, 0x02, 0x09, 0xf9, 0x0d, 0x19, 0x00, 0xf0, 0xe2,
  0x2d, 0x0e, 0x05, 0x25, 0x0a, 0x2b, 0x54, 0x07, 0x0e, 0x05, 0x04, 0xfe,
  0xf0, 0x02, 0x01, 0xe1, 0x06, 0xee, 0x09, 0xe6, 0x1b, 0xfa, 0x1a, 0x00,
  0x20, 0x05, 0xe2, 0xec, 0xf4, 0xf1, 0x03, 0xf3, 0x10, 0x0d, 0xf8, 0xf6,
  0xed, 0x12, 0xfe, 0xf2, 0xe5, 0x09, 0x16, 0x14, 0x0d, 0x06, 0x00, 0xf6,
  0x11, 0x05, 0xe3, 0x09, 0xfd, 0x04, 0xe6, 0x0c, 0xe8, 0x03, 0xe2, 0x1a,
  0xef, 0xed, 0x05, 0x05, 0x48, 0xec, 0xff, 0xff, 0xd6, 0xfa, 0xff, 0xff,
  0x04, 0x00, 0x00, 0x00, 0x80, 0x00, 0x00, 0x00, 0xb2, 0xf8, 0xff, 0xff,
  0xfb, 0xfe, 0xff, 0xff, 0x00, 0x00, 0x00, 0x00, 0xe9, 0x32, 0x00, 0x00,
  0xbd, 0x12, 0x00, 0x00, 0x91, 0x1c, 0x00, 0x00, 0x8d, 0x0a, 0x00, 0x00,
  0x00, 0x00, 0x00, 0x00, 0xa7, 0x12, 0x00, 0x00, 0x6d, 0x12, 0x00, 0x00,
  0x06, 0x1d, 0x00, 0x00, 0x96, 0x10, 0x00, 0x00, 0x02, 0x0b, 0x00, 0x00,
  0x41, 0x12, 0x00, 0x00, 0xfc, 0x10, 0x00, 0x00, 0xaf, 0x1a, 0x00, 0x00,
  0xf5, 0xfe, 0xff, 0xff, 0x85, 0xff, 0xff, 0xff, 0xc1, 0xfc, 0xff, 0xff,
  0x85, 0xff, 0xff, 0xff, 0x84, 0x11, 0x00, 0x00, 0xfa, 0xfe, 0xff, 0xff,
  0x44, 0x15, 0x00, 0x00, 0x1c, 0xfe, 0xff, 0xff, 0x99, 0x10, 0x00, 0x00,
  0x89, 0xfd, 0xff, 0xff, 0xc9, 0x12, 0x00, 0x00, 0x00, 0x00, 0x00, 0x00,
  0x7b, 0xfd, 0xff, 0xff, 0x00, 0x00, 0x00, 0x00, 0x85, 0xff, 0xff, 0xff,
  0xb3, 0x10, 0x00, 0x00, 0x62, 0xfb, 0xff, 0xff, 0x04, 0x00, 0x00, 0x00,
  0x00, 0x04, 0x00, 0x00, 0xff, 0x1f, 0x51, 0xf8, 0xd7, 0xf6, 0xee, 0x16,
  0x4b, 0x1f, 0xe9, 0x13, 0xef, 0xf9, 0x2d, 0xff, 0x15, 0x16, 0xfa, 0xf5,
  0x26, 0x12, 0xd7, 0xfc, 0x1d, 0x0e, 0xf7, 0x1a, 0x0d, 0x0e, 0x31, 0xf2,
  0x0c, 0xe2, 0xfd, 0x15, 0xfc, 0xed, 0x13, 0x09, 0x08, 0x19, 0x0f, 0xf3,
  0x0b, 0xef, 0xf9, 0xe2, 0xf3, 0xf5, 0xfd, 0x0f, 0x19, 0x12, 0x07, 0xf2,
  0x08, 0xf0, 0x16, 0xeb, 0xf6, 0x13, 0xe5, 0xe1, 0x07, 0x03, 0x1a, 0x09,
  0xe4, 0xf8, 0x04, 0xf8, 0xf5, 0x12, 0xf1, 0x04, 0x0a, 0x0b, 0x05, 0x13,
  0x06, 0x0a, 0xee, 0x1c, 0x09, 0x09, 0xe7, 0x1a, 0xe2, 0xeb, 0xf2, 0x1b,
  0xf0, 0xfc, 0x14, 0xef, 0x31, 0xf1, 0xf8, 0x00, 0x40, 0x61, 0x07, 0x16,
  0x3f, 0x66, 0x30, 0x1e, 0x34, 0x1d, 0x56, 0x2c, 0x51, 0x5a, 0x37, 0xf1,
  0x36, 0x2e, 0x51, 0x13, 0x16, 0x12, 0xe1, 0x36, 0x23, 0x27, 0x4c, 0x35,
  0x2b, 0xf2, 0x21, 0xfc, 0x35, 0x44, 0x17, 0x19, 0x45, 0x4b, 0x08, 0x2b,
  0x28, 0xe5, 0x14, 0x20, 0x22, 0x21, 0x0f, 0xeb, 0x00, 0x32, 0x2f, 0xfb,
  0x13, 0xf7, 0xfa, 0x1c, 0x21, 0x0e, 0x0d, 0x26, 0x1d, 0xb8, 0x29, 0xef,
  0x39, 0x30, 0xb9, 0x05, 0x55, 0x2c, 0xf4, 0xed, 0xee, 0x1a, 0x52, 0x16,
  0x1f, 0x44, 0x1a, 0x08, 0x45, 0x26, 0x2c, 0xff, 0x2b, 0x05, 0xd3, 0x30,
  0x10, 0x09, 0x44, 0x1f, 0x0f, 0xd5, 0x7f, 0xf9, 0xfa, 0x21, 0xc6, 0x2b,
  0x5f, 0x30, 0x04, 0xf4, 0xe4, 0xfa, 0x52, 0x2f, 0x28, 0x20, 0x17, 0x0b,
  0x1f, 0x41, 0xde, 0x07, 0x0d, 0xfc, 0xc4, 0x3f, 0x1c, 0x04, 0x49, 0x12,
  0x11, 0xea, 0xf3, 0xf9, 0x18, 0xf1, 0xe2, 0xfc, 0xec, 0xe8, 0x18, 0xee,
  0xef, 0xf6, 0xf5, 0x0e, 0xe2, 0xfc, 0x08, 0x01, 0xf9, 0xf1, 0xf0, 0xf4,
  0x08, 0x19, 0x06, 0xfe, 0xff, 0xe3, 0xfd, 0xec, 0xf6, 0xe6, 0xfb, 0x13,
  0x20, 0x29, 0x21, 0x21, 0x47, 0x1f, 0x1e, 0x15, 0x21, 0xf3, 0x18, 0x0b,
  0x2a, 0x03, 0x0a, 0xf8, 0x06, 0x0b, 0x38, 0xf8, 0x29, 0xf8, 0x28, 0x35,
  0x1b, 0x1c, 0x17, 0x02, 0x1c, 0xe4, 0xf8, 0xfd, 0x1b, 0x2f, 0x18, 0x22,
  0x4f, 0x1d, 0xf2, 0x06, 0x28, 0xf5, 0x29, 0x2d, 0x33, 0x07, 0xfb, 0xe6,
  0x1b, 0x24, 0x15, 0xe7, 0x08, 0x2b, 0x12, 0x16, 0x1a, 0x23, 0x2a, 0x2b,
  0x2c, 0x21, 0xe0, 0x0d, 0x70, 0x64, 0x49, 0x16, 0x6b, 0x55, 0x24, 0x37,
  0x2b, 0x1a, 0x22, 0x1d, 0x24, 0x4f, 0x15, 0xf6, 0x14, 0x47, 0x38, 0x19,
  0x3f, 0x17, 0x3a, 0x12, 0x38, 0x0a, 0x31, 0x0d, 0x1a, 0x18, 0xf2, 0xf0,
  0x51, 0x4c, 0xf5, 0x11, 0x33, 0x09, 0x27, 0xf6, 0xfa, 0xf5, 0x1f, 0x01,
  0x14, 0x1a, 0x29, 0xfd, 0x09, 0x35, 0x29, 0x0e, 0x29, 0x2b, 0x0c, 0x1f,
  0xee, 0x29, 0x24, 0x27, 0xdf, 0xca, 0xf3, 0xfd, 0x5a, 0x17, 0x1a, 0x0e,
  0xee, 0x2d, 0x02, 0x11, 0x18, 0x1c, 0x09, 0xf8, 0xfc, 0xf6, 0xee, 0x15,
  0xdf, 0x2b, 0x11, 0x04, 0x16, 0xef, 0x0a, 0x17, 0xed, 0xf5, 0xfd, 0xf2,
  0x1d, 0xf6, 0xea, 0xf0, 0x39, 0x29, 0xf9, 0x03, 0x49, 0x21, 0x27, 0x1b,
  0x04, 0xf7, 0x17, 0x1f, 0x32, 0x22, 0x05, 0xe6, 0x15, 0x38, 0x33, 0xfb,
  0xf9, 0x2f, 0x04, 0x0b, 0x13, 0x01, 0x2e, 0x1e, 0x22, 0x0f, 0xed, 0xfc,
  0x38, 0x18, 0x05, 0xf2, 0x4e, 0x31, 0x16, 0x1e, 0x2b, 0xfe, 0x1a, 0x0f,
  0x24, 0x1d, 0x09, 0x1e, 0x24, 0xfe, 0x23, 0x10, 0xef, 0x08, 0x1c, 0x09,
  0x17, 0x19, 0x29, 0x28, 0x1b, 0xe4, 0xf0, 0xe4, 0x33, 0x48, 0x2c, 0x22,
  0x54, 0x1f, 0xfe, 0x1d, 0x36, 0x02, 0x0c, 0x30, 0x18, 0x23, 0x21, 0x19,
  0xec, 0x2d, 0x30, 0x0a, 0x20, 0x3c, 0x4e, 0x1b, 0x2f, 0x1a, 0xff, 0x25,
  0x1a, 0xe8, 0x18, 0x14, 0x0a, 0xf9, 0x08, 0xe2, 0xf3, 0xe8, 0xee, 0x19,
  0x15, 0xf7, 0xe5, 0xe0, 0xe7, 0xec, 0xea, 0xf6, 0xe5, 0xfe, 0xf1, 0x1a,
  0x0e, 0x09, 0x06, 0xfa, 0xf9, 0x04, 0x03, 0xfa, 0xf0, 0x1a, 0x07, 0x12,
  0x03, 0x08, 0xe4, 0x07, 0x07, 0xf7, 0x1b, 0xef, 0xff, 0xe9, 0xf2, 0x0f,
  0xf0, 0x04, 0x04, 0x15, 0xf5, 0xfa, 0x0d, 0x02, 0xf4, 0xe7, 0x18, 0xf1,
  0xef, 0xe4, 0x01, 0xf9, 0xf6, 0x13, 0xfb, 0x15, 0xdd, 0xea, 0x11, 0x05,
  0xfb, 0x0a, 0x0d, 0x18, 0x04, 0xf8, 0xf5, 0x14, 0x08, 0x08, 0x0a, 0xea,
  0x19, 0xe7, 0x05, 0xfe, 0xfb, 0xed, 0xe1, 0x18, 0xeb, 0xe0, 0x17, 0xfc,
  0xe5, 0xe5, 0x18, 0xea, 0xfe, 0xf1, 0x12, 0x18, 0x08, 0x0c, 0x00, 0x06,
  0x09, 0x05, 0x13, 0xf0, 0x06, 0xe6, 0x0f, 0xf2, 0x0f, 0xf8, 0x11, 0xf9,
  0xe4, 0xec, 0xff, 0xed, 0xf1, 0xf1, 0x0a, 0x0b, 0x0f, 0xfa, 0xed, 0x14,
  0x3d, 0x1d, 0x23, 0x27, 0x3c, 0x23, 0xf0, 0x28, 0x24, 0x0b, 0x32, 0x05,
  0xfa, 0xfc, 0x26, 0xe9, 0x2e, 0x2f, 0x34, 0xf1, 0x2a, 0x23, 0x0a, 0x3c,
  0xf8, 0x1f, 0x01, 0x25, 0xe7, 0x16, 0xec, 0x19, 0xf3, 0x07, 0x0a, 0x09,
  0x1a, 0xeb, 0x0f, 0xf3, 0x0a, 0xed, 0xf3, 0x17, 0x0a, 0x00, 0xe1, 0xec,
  0xe4, 0x0b, 0x1c, 0xef, 0xe3, 0x12, 0xef, 0x0c, 0xea, 0xea, 0x19, 0xe9,
  0x16, 0xe8, 0x24, 0xf8, 0x2f, 0x2a, 0xe8, 0x08, 0x5a, 0x3a, 0x1a, 0x12,
  0x0d, 0x1b, 0x20, 0x0d, 0x31, 0x13, 0x22, 0x05, 0x30, 0x28, 0x29, 0x04,
  0xff, 0x1e, 0xeb, 0x3c, 0x29, 0x0c, 0x21, 0xfd, 0x02, 0xf8, 0x0a, 0xf8,
  0x18, 0xe8, 0x10, 0xf6, 0xe4, 0x11, 0x00, 0x01, 0x19, 0xf4, 0x08, 0xf7,
  0xed, 0x03, 0x03, 0xe7, 0xe0, 0x03, 0xf1, 0xf9, 0x13, 0x05, 0xfc, 0xe7,
  0x16, 0xf4, 0x08, 0xee, 0x20, 0x0e, 0x06, 0xea, 0x1d, 0x17, 0xf2, 0xfc,
  0x6b, 0x2f, 0x0b, 0x06, 0x02, 0xfb, 0x40, 0x11, 0x12, 0x17, 0x29, 0x13,
  0x3b, 0x2e, 0x16, 0x1b, 0x04, 0xf1, 0x09, 0x48, 0x1e, 0xf6, 0x19, 0x1d,
  0xef, 0x12, 0xfc, 0x1a, 0xf9, 0xfb, 0xf8, 0x0d, 0xf2, 0x14, 0x18, 0x09,
  0xfd, 0xef, 0xf6, 0x0a, 0x05, 0xf6, 0xf3, 0x1c, 0x13, 0xf6, 0x16, 0xec,
  0xe7, 0xf4, 0xf6, 0xf8, 0xf9, 0xe2, 0xf3, 0x16, 0xf3, 0xda, 0xbb, 0xfc,
  0x55, 0x4c, 0x17, 0x15, 0x07, 0x2e, 0x18, 0x19, 0x30, 0xe8, 0xf4, 0xff,
  0x21, 0x16, 0x03, 0x01, 0x11, 0x33, 0x1f, 0x10, 0x19, 0x26, 0x42, 0x08,
  0x15, 0x11, 0xf3, 0x1b, 0xe8, 0x10, 0x08, 0x1c, 0xff, 0x0f, 0x13, 0xef,
  0xe8, 0x07, 0xf1, 0x00, 0xec, 0xfc, 0xf1, 0xfe, 0xf6, 0xf9, 0xe2, 0xf5,
  0xf8, 0x0c, 0x0c, 0xff, 0xe1, 0xe4, 0xea, 0xfd, 0xeb, 0xfa, 0xe2, 0xe2,
  0xfa, 0xf4, 0xfe, 0xe6, 0xe5, 0x14, 0x12, 0x10, 0xfc, 0xf0, 0xe5, 0xf3,
  0x16, 0x16, 0xe1, 0xfe, 0xfb, 0xec, 0xe5, 0xf9, 0xfe, 0xea, 0x09, 0xec,
  0x06, 0xe6, 0xe2, 0x0b, 0xed, 0x13, 0xec, 0x01, 0xf3, 0xf5, 0x1a, 0xeb,
  0x08, 0x1b, 0x1c, 0x0d, 0xe5, 0x1e, 0xf9, 0xe4, 0xf4, 0x1e, 0x0f, 0xfa,
  0x01, 0xf6, 0xfe, 0xed, 0xe9, 0xe4, 0xfd, 0x1a, 0x07, 0x08, 0xfb, 0x17,
  0x03, 0x01, 0xe7, 0xe5, 0xfb, 0x04, 0xe5, 0x1d, 0x1d, 0xfd, 0x0a, 0x05,
  0xeb, 0x15, 0x0e, 0xfb, 0x02, 0xe2, 0xfe, 0xfa, 0xe9, 0xe6, 0x04, 0x0c,
  0x08, 0x10, 0xeb, 0x0b, 0x19, 0x09, 0x0f, 0x16, 0xe7, 0xe5, 0x19, 0xe2,
  0xf3, 0xfe, 0xe4, 0xed, 0x52, 0x24, 0x0a, 0xeb, 0x43, 0x12, 0xfa, 0x25,
  0x25, 0x1a, 0x22, 0x1d, 0x15, 0x29, 0x06, 0x08, 0x07, 0x30, 0x31, 0xe6,
  0x20, 0x1f, 0x14, 0x2a, 0x1a, 0x18, 0x2b, 0x27, 0xe4, 0xf0, 0xff, 0xff,
  0x72, 0xff, 0xff, 0xff, 0x04, 0x00, 0x00, 0x00, 0x80, 0x00, 0x00, 0x00,
  0xe4, 0x3a, 0x00, 0x00, 0x31, 0xe9, 0xff, 0xff, 0x1c, 0xf9, 0xff, 0xff,
  0x00, 0x00, 0x00, 0x00, 0x22, 0x70, 0x00, 0x00, 0x1c, 0x61, 0x00, 0x00,
  0x6c, 0x0c, 0x00, 0x00, 0x42, 0x2d, 0x00, 0x00, 0x88, 0x5f, 0x00, 0x00,
  0x2a, 0x2f, 0x00, 0x00, 0x4d, 0x36, 0x00, 0x00, 0x0a, 0x34, 0x00, 0x00,
  0xce, 0x3f, 0x00, 0x00, 0x00, 0x00, 0x00, 0x00, 0xdd, 0x40, 0x00, 0x00,
  0xf8, 0x3d, 0x00, 0x00, 0x64, 0x42, 0x00, 0x00, 0xc4, 0x49, 0x00, 0x00,
  0x30, 0x39, 0x00, 0x00, 0x00, 0x00, 0x00, 0x00, 0x87, 0x2d, 0x00, 0x00,
  0xce, 0x43, 0x00, 0x00, 0x0e, 0x46, 0x00, 0x00, 0x4a, 0xfa, 0xff, 0xff,
  0xea, 0x41, 0x00, 0x00, 0x54, 0x38, 0x00, 0x00, 0x63, 0x19, 0x00, 0x00,
  0xa7, 0x3f, 0x00, 0x00, 0xc3, 0x3d, 0x00, 0x00, 0xb7, 0x39, 0x00, 0x00,
  0x8f, 0x3d, 0x00, 0x00, 0xac, 0x37, 0x00, 0x00, 0x00, 0x00, 0x06, 0x00,
  0x08, 0x00, 0x04, 0x00, 0x06, 0x00, 0x00, 0x00, 0x04, 0x00, 0x00, 0x00,
  0x60, 0x00, 0x00, 0x00, 0x33, 0x31, 0x31, 0x00, 0x46, 0x1b, 0x50, 0x12,
  0xe5, 0xee, 0xf6, 0xfb, 0xc3, 0x01, 0xf0, 0x0f, 0xaf, 0x3c, 0xdd, 0x12,
  0x44, 0x22, 0x3b, 0x36, 0x7f, 0xda, 0xe7, 0x16, 0xd6, 0xfd, 0x20, 0x04,
  0x4c, 0x00, 0x3c, 0x56, 0xd6, 0xe0, 0x50, 0xd5, 0xbf, 0x02, 0x3d, 0x1c,
  0xd7, 0x39, 0xf6, 0x4f, 0x09, 0x43, 0xdf, 0x1b, 0x09, 0x14, 0x0e, 0x30,
  0x10, 0xfa, 0xe5, 0xc8, 0x29, 0x39, 0xbb, 0x14, 0x12, 0xed, 0xce, 0x0d,
  0x26, 0xc5, 0x0a, 0xbb, 0x32, 0xf9, 0x5b, 0xdc, 0x40, 0x01, 0xcf, 0x23,
  0x3a, 0x43, 0x21, 0xae, 0x43, 0x2d, 0x15, 0x32, 0x3c, 0x47, 0x3c, 0x17,
  0xdc, 0x43, 0xf5, 0x4c, 0xe8, 0xf1, 0xff, 0xff, 0xec, 0xf1, 0xff, 0xff,
  0xf0, 0xf1, 0xff, 0xff, 0x0f, 0x00, 0x00, 0x00, 0x4d, 0x4c, 0x49, 0x52,
  0x20, 0x43, 0x6f, 0x6e, 0x76, 0x65, 0x72, 0x74, 0x65, 0x64, 0x2e, 0x00,
  0x01, 0x00, 0x00, 0x00, 0x14, 0x00, 0x00, 0x00, 0x00, 0x00, 0x0e, 0x00,
  0x18, 0x00, 0x14, 0x00, 0x10, 0x00, 0x0c, 0x00, 0x08, 0x00, 0x04, 0x00,
  0x0e, 0x00, 0x00, 0x00, 0x14, 0x00, 0x00, 0x00, 0x1c, 0x00, 0x00, 0x00,
  0xc8, 0x01, 0x00, 0x00, 0xcc, 0x01, 0x00, 0x00, 0xd0, 0x01, 0x00, 0x00,
  0x04, 0x00, 0x00, 0x00, 0x6d, 0x61, 0x69, 0x6e, 0x00, 0x00, 0x00, 0x00,
  0x07, 0x00, 0x00, 0x00, 0x90, 0x01, 0x00, 0x00, 0x40, 0x01, 0x00, 0x00,
  0xf4, 0x00, 0x00, 0x00, 0xa8, 0x00, 0x00, 0x00, 0x6c, 0x00, 0x00, 0x00,
  0x34, 0x00, 0x00, 0x00, 0x10, 0x00, 0x00, 0x00, 0x00, 0x00, 0x0a, 0x00,
  0x10, 0x00, 0x0c, 0x00, 0x08, 0x00, 0x04, 0x00, 0x0a, 0x00, 0x00, 0x00,
  0x0c, 0x00, 0x00, 0x00, 0x10, 0x00, 0x00, 0x00, 0x02, 0x00, 0x00, 0x00,
  0x01, 0x00, 0x00, 0x00, 0x11, 0x00, 0x00, 0x00, 0x01, 0x00, 0x00, 0x00,
  0x10, 0x00, 0x00, 0x00, 0x5a, 0xff, 0xff, 0xff, 0x14, 0x00, 0x00, 0x00,
  0x00, 0x00, 0x00, 0x08, 0x10, 0x00, 0x00, 0x00, 0x14, 0x00, 0x00, 0x00,
  0x01, 0x00, 0x00, 0x00, 0xa8, 0xf2, 0xff, 0xff, 0x01, 0x00, 0x00, 0x00,
  0x10, 0x00, 0x00, 0x00, 0x03, 0x00, 0x00, 0x00, 0x0d, 0x00, 0x00, 0x00,
  0x0e, 0x00, 0x00, 0x00, 0x0f, 0x00, 0x00, 0x00, 0x8e, 0xff, 0xff, 0xff,
  0x14, 0x00, 0x00, 0x00, 0x00, 0x00, 0x00, 0x08, 0x14, 0x00, 0x00, 0x00,
  0x18, 0x00, 0x00, 0x00, 0x01, 0x00, 0x00, 0x00, 0x36, 0xff, 0xff, 0xff,
  0x00, 0x00, 0x00, 0x01, 0x01, 0x00, 0x00, 0x00, 0x0d, 0x00, 0x00, 0x00,
  0x03, 0x00, 0x00, 0x00, 0x0a, 0x00, 0x00, 0x00, 0x0b, 0x00, 0x00, 0x00,
  0x0c, 0x00, 0x00, 0x00, 0xc6, 0xff, 0xff, 0xff, 0x14, 0x00, 0x00, 0x00,
  0x00, 0x00, 0x00, 0x08, 0x14, 0x00, 0x00, 0x00, 0x18, 0x00, 0x00, 0x00,
  0x01, 0x00, 0x00, 0x00, 0x6e, 0xff, 0xff, 0xff, 0x00, 0x00, 0x00, 0x01,
  0x01, 0x00, 0x00, 0x00, 0x0a, 0x00, 0x00, 0x00, 0x03, 0x00, 0x00, 0x00,
  0x07, 0x00, 0x00, 0x00, 0x08, 0x00, 0x00, 0x00, 0x09, 0x00, 0x00, 0x00,
  0x00, 0x00, 0x0e, 0x00, 0x18, 0x00, 0x14, 0x00, 0x10, 0x00, 0x0c, 0x00,
  0x0b, 0x00, 0x04, 0x00, 0x0e, 0x00, 0x00, 0x00, 0x14, 0x00, 0x00, 0x00,
  0x00, 0x00, 0x00, 0x08, 0x14, 0x00, 0x00, 0x00, 0x18, 0x00, 0x00, 0x00,
  0x01, 0x00, 0x00, 0x00, 0xb6, 0xff, 0xff, 0xff, 0x00, 0x00, 0x00, 0x01,
  0x01, 0x00, 0x00, 0x00, 0x07, 0x00, 0x00, 0x00, 0x03, 0x00, 0x00, 0x00,
  0x04, 0x00, 0x00, 0x00, 0x05, 0x00, 0x00, 0x00, 0x06, 0x00, 0x00, 0x00,
  0x00, 0x00, 0x0e, 0x00, 0x1a, 0x00, 0x14, 0x00, 0x10, 0x00, 0x0c, 0x00,
  0x0b, 0x00, 0x04, 0x00, 0x0e, 0x00, 0x00, 0x00, 0x1c, 0x00, 0x00, 0x00,
  0x00, 0x00, 0x00, 0x08, 0x1c, 0x00, 0x00, 0x00, 0x20, 0x00, 0x00, 0x00,
  0x01, 0x00, 0x00, 0x00, 0x00, 0x00, 0x06, 0x00, 0x08, 0x00, 0x07, 0x00,
  0x06, 0x00, 0x00, 0x00, 0x00, 0x00, 0x00, 0x01, 0x01, 0x00, 0x00, 0x00,
  0x04, 0x00, 0x00, 0x00, 0x03, 0x00, 0x00, 0x00, 0x01, 0x00, 0x00, 0x00,
  0x02, 0x00, 0x00, 0x00, 0x03, 0x00, 0x00, 0x00, 0x00, 0x00, 0x0a, 0x00,
  0x0c, 0x00, 0x00, 0x00, 0x08, 0x00, 0x04, 0x00, 0x0a, 0x00, 0x00, 0x00,
  0x08, 0x00, 0x00, 0x00, 0x0c, 0x00, 0x00, 0x00, 0x01, 0x00, 0x00, 0x00,
  0x01, 0x00, 0x00, 0x00, 0x01, 0x00, 0x00, 0x00, 0x00, 0x00, 0x00, 0x00,
  0x01, 0x00, 0x00, 0x00, 0x11, 0x00, 0x00, 0x00, 0x01, 0x00, 0x00, 0x00,
  0x00, 0x00, 0x00, 0x00, 0x12, 0x00, 0x00, 0x00, 0xd0, 0x0b, 0x00, 0x00,
  0x60, 0x0a, 0x00, 0x00, 0x98, 0x09, 0x00, 0x00, 0xf4, 0x08, 0x00, 0x00,
  0x38, 0x08, 0x00, 0x00, 0x84, 0x07, 0x00, 0x00, 0xf8, 0x06, 0x00, 0x00,
  0x34, 0x06, 0x00, 0x00, 0x80, 0x05, 0x00, 0x00, 0xf4, 0x04, 0x00, 0x00,
  0x30, 0x04, 0x00, 0x00, 0x7c, 0x03, 0x00, 0x00, 0xf0, 0x02, 0x00, 0x00,
  0x2c, 0x02, 0x00, 0x00, 0x78, 0x01, 0x00, 0x00, 0x04, 0x01, 0x00, 0x00,
  0x60, 0x00, 0x00, 0x00, 0x04, 0x00, 0x00, 0x00, 0x8e, 0xf4, 0xff, 0xff,
  0x00, 0x00, 0x00, 0x01, 0x14, 0x00, 0x00, 0x00, 0x1c, 0x00, 0x00, 0x00,
  0x1c, 0x00, 0x00, 0x00, 0x12, 0x00, 0x00, 0x00, 0x34, 0x00, 0x00, 0x00,
  0x02, 0x00, 0x00, 0x00, 0xff, 0xff, 0xff, 0xff, 0x02, 0x00, 0x00, 0x00,
  0x78, 0xf4, 0xff, 0xff, 0x19, 0x00, 0x00, 0x00, 0x53, 0x74, 0x61, 0x74,
  0x65, 0x66, 0x75, 0x6c, 0x50, 0x61, 0x72, 0x74, 0x69, 0x74, 0x69, 0x6f,
  0x6e, 0x65, 0x64, 0x43, 0x61, 0x6c, 0x6c, 0x3a, 0x30, 0x00, 0x00, 0x00,
  0x02, 0x00, 0x00, 0x00, 0x01, 0x00, 0x00, 0x00, 0x02, 0x00, 0x00, 0x00,
  0x52, 0xf6, 0xff, 0xff, 0x00, 0x00, 0x00, 0x01, 0x18, 0x00, 0x00, 0x00,
  0x20, 0x00, 0x00, 0x00, 0x3c, 0x00, 0x00, 0x00, 0x11, 0x00, 0x00, 0x00,
  0x00, 0x00, 0x00, 0x09, 0x78, 0x00, 0x00, 0x00, 0x02, 0x00, 0x00, 0x00,
  0xff, 0xff, 0xff, 0xff, 0x02, 0x00, 0x00, 0x00, 0x3c, 0xf6, 0xff, 0xff,
  0x08, 0x00, 0x00, 0x00, 0x10, 0x00, 0x00, 0x00, 0x01, 0x00, 0x00, 0x00,
  0x81, 0xff, 0xff, 0xff, 0xff, 0xff, 0xff, 0xff, 0x01, 0x00, 0x00, 0x00,
  0xe4, 0xdd, 0xc7, 0x3e, 0x40, 0x00, 0x00, 0x00, 0x73, 0x65, 0x71, 0x75,
  0x65, 0x6e, 0x74, 0x69, 0x61, 0x6c, 0x2f, 0x71, 0x75, 0x61, 0x6e, 0x74,
  0x5f, 0x64, 0x65, 0x6e, 0x73, 0x65, 0x5f, 0x34, 0x2f, 0x4d, 0x61, 0x74,
  0x4d, 0x75, 0x6c, 0x3b, 0x73, 0x65, 0x71, 0x75, 0x65, 0x6e, 0x74, 0x69,
  0x61, 0x6c, 0x2f, 0x71, 0x75, 0x61, 0x6e, 0x74, 0x5f, 0x64, 0x65, 0x6e,
  0x73, 0x65, 0x5f, 0x34, 0x2f, 0x42, 0x69, 0x61, 0x73, 0x41, 0x64, 0x64,
  0x00, 0x00, 0x00, 0x00, 0x02, 0x00, 0x00, 0x00, 0x01, 0x00, 0x00, 0x00,
  0x02, 0x00, 0x00, 0x00, 0xb6, 0xf7, 0xff, 0xff, 0x00, 0x00, 0x00, 0x01,
  0x14, 0x00, 0x00, 0x00, 0x34, 0x00, 0x00, 0x00, 0x10, 0x00, 0x00, 0x00,
  0x00, 0x00, 0x00, 0x02, 0x50, 0x00, 0x00, 0x00, 0xcc, 0xf6, 0xff, 0xff,
  0x08, 0x00, 0x00, 0x00, 0x14, 0x00, 0x00, 0x00, 0x01, 0x00, 0x00, 0x00,
  0x00, 0x00, 0x00, 0x00, 0x00, 0x00, 0x00, 0x00, 0x00, 0x00, 0x00, 0x00,
  0x01, 0x00, 0x00, 0x00, 0xde, 0x0c, 0x47, 0x3b, 0x20, 0x00, 0x00, 0x00,
  0x73, 0x65, 0x71, 0x75, 0x65, 0x6e, 0x74, 0x69, 0x61, 0x6c, 0x2f, 0x71,
  0x75, 0x61, 0x6e, 0x74, 0x5f, 0x64, 0x65, 0x6e, 0x73, 0x65, 0x5f, 0x34,
  0x2f, 0x42, 0x69, 0x61, 0x73, 0x41, 0x64, 0x64, 0x00, 0x00, 0x00, 0x00,
  0x01, 0x00, 0x00, 0x00, 0x02, 0x00, 0x00, 0x00, 0x26, 0xf8, 0xff, 0xff,
  0x00, 0x00, 0x00, 0x01, 0x14, 0x00, 0x00, 0x00, 0x34, 0x00, 0x00, 0x00,
  0x0f, 0x00, 0x00, 0x00, 0x00, 0x00, 0x00, 0x09, 0x8c, 0x00, 0x00, 0x00,
  0x3c, 0xf7, 0xff, 0xff, 0x08, 0x00, 0x00, 0x00, 0x14, 0x00, 0x00, 0x00,
  0x01, 0x00, 0x00, 0x00, 0x00, 0x00, 0x00, 0x00, 0x00, 0x00, 0x00, 0x00,
  0x00, 0x00, 0x00, 0x00, 0x01, 0x00, 0x00, 0x00, 0x39, 0xa9, 0xb8, 0x3b,
  0x5f, 0x00, 0x00, 0x00, 0x73, 0x65, 0x71, 0x75, 0x65, 0x6e, 0x74, 0x69,
  0x61, 0x6c, 0x2f, 0x71, 0x75, 0x61, 0x6e, 0x74, 0x5f, 0x64, 0x65, 0x6e,
  0x73, 0x65, 0x5f, 0x34, 0x2f, 0x4d, 0x61, 0x74, 0x4d, 0x75, 0x6c, 0x3b,
  0x73, 0x65, 0x71, 0x75, 0x65, 0x6e, 0x74, 0x69, 0x61, 0x6c, 0x2f, 0x71,
  0x75, 0x61, 0x6e, 0x74, 0x5f, 0x64, 0x65, 0x6e, 0x73, 0x65, 0x5f, 0x34,
  0x2f, 0x4c, 0x61, 0x73, 0x74, 0x56, 0x61, 0x6c, 0x75, 0x65, 0x51, 0x75,
  0x61, 0x6e, 0x74, 0x2f, 0x46, 0x61, 0x6b, 0x65, 0x51, 0x75, 0x61, 0x6e,
  0x74, 0x57, 0x69, 0x74, 0x68, 0x4d, 0x69, 0x6e, 0x4d, 0x61, 0x78, 0x56,
  0x61, 0x72, 0x73, 0x00, 0x02, 0x00, 0x00, 0x00, 0x02, 0x00, 0x00, 0x00,
  0x08, 0x00, 0x00, 0x00, 0x12, 0xf8, 0xff, 0xff, 0x00, 0x00, 0x00, 0x01,
  0x18, 0x00, 0x00, 0x00, 0x20, 0x00, 0x00, 0x00, 0x40, 0x00, 0x00, 0x00,
  0x0e, 0x00, 0x00, 0x00, 0x00, 0x00, 0x00, 0x09, 0x98, 0x00, 0x00, 0x00,
  0x02, 0x00, 0x00, 0x00, 0xff, 0xff, 0xff, 0xff, 0x08, 0x00, 0x00, 0x00,
  0xfc, 0xf7, 0xff, 0xff, 0x08, 0x00, 0x00, 0x00, 0x14, 0x00, 0x00, 0x00,
  0x01, 0x00, 0x00, 0x00, 0x80, 0xff, 0xff, 0xff, 0xff, 0xff, 0xff, 0xff,
  0x00, 0x00, 0x00, 0x00, 0x01, 0x00, 0x00, 0x00, 0x5c, 0xf9, 0x09, 0x3f,
  0x5e, 0x00, 0x00, 0x00, 0x73, 0x65, 0x71, 0x75, 0x65, 0x6e, 0x74, 0x69,
  0x61, 0x6c, 0x2f, 0x71, 0x75, 0x61, 0x6e, 0x74, 0x5f, 0x64, 0x65, 0x6e,
  0x73, 0x65, 0x5f, 0x33, 0x2f, 0x4d, 0x61, 0x74, 0x4d, 0x75, 0x6c, 0x3b,
  0x73, 0x65, 0x71, 0x75, 0x65, 0x6e, 0x74, 0x69, 0x61, 0x6c, 0x2f, 0x71,
  0x75, 0x61, 0x6e, 0x74, 0x5f, 0x64, 0x65, 0x6e, 0x73, 0x65, 0x5f, 0x33,
  0x2f, 0x52, 0x65, 0x6c, 0x75, 0x3b, 0x73, 0x65, 0x71, 0x75, 0x65, 0x6e,
  0x74, 0x69, 0x61, 0x6c, 0x2f, 0x71, 0x75, 0x61, 0x6e, 0x74, 0x5f, 0x64,
  0x65, 0x6e, 0x73, 0x65, 0x5f, 0x33, 0x2f, 0x42, 0x69, 0x61, 0x73, 0x41,
  0x64, 0x64, 0x00, 0x00, 0x02, 0x00, 0x00, 0x00, 0x01, 0x00, 0x00, 0x00,
  0x08, 0x00, 0x00, 0x00, 0x96, 0xf9, 0xff, 0xff, 0x00, 0x00, 0x00, 0x01,
  0x14, 0x00, 0x00, 0x00, 0x30, 0x00, 0x00, 0x00, 0x0d, 0x00, 0x00, 0x00,
  0x00, 0x00, 0x00, 0x02, 0x68, 0x00, 0x00, 0x00, 0xac, 0xf8, 0xff, 0xff,
  0x08, 0x00, 0x00, 0x00, 0x10, 0x00, 0x00, 0x00, 0x01, 0x00, 0x00, 0x00,
  0x00, 0x00, 0x00, 0x00, 0x00, 0x00, 0x00, 0x00, 0x01, 0x00, 0x00, 0x00,
  0x90, 0xa0, 0x0f, 0x3b, 0x3e, 0x00, 0x00, 0x00, 0x73, 0x65, 0x71, 0x75,
  0x65, 0x6e, 0x74, 0x69, 0x61, 0x6c, 0x2f, 0x71, 0x75, 0x61, 0x6e, 0x74,
  0x5f, 0x64, 0x65, 0x6e, 0x73, 0x65, 0x5f, 0x33, 0x2f, 0x52, 0x65, 0x6c,
  0x75, 0x3b, 0x73, 0x65, 0x71, 0x75, 0x65, 0x6e, 0x74, 0x69, 0x61, 0x6c,
  0x2f, 0x71, 0x75, 0x61, 0x6e, 0x74, 0x5f, 0x64, 0x65, 0x6e, 0x73, 0x65,
  0x5f, 0x33, 0x2f, 0x42, 0x69, 0x61, 0x73, 0x41, 0x64, 0x64, 0x00, 0x00,
  0x01, 0x00, 0x00, 0x00, 0x08, 0x00, 0x00, 0x00, 0x1e, 0xfa, 0xff, 0xff,
  0x00, 0x00, 0x00, 0x01, 0x14, 0x00, 0x00, 0x00, 0x34, 0x00, 0x00, 0x00,
  0x0c, 0x00, 0x00, 0x00, 0x00, 0x00, 0x00, 0x09, 0x8c, 0x00, 0x00, 0x00,
  0x34, 0xf9, 0xff, 0xff, 0x08, 0x00, 0x00, 0x00, 0x14, 0x00, 0x00, 0x00,
  0x01, 0x00, 0x00, 0x00, 0x00, 0x00, 0x00, 0x00, 0x00, 0x00, 0x00, 0x00,
  0x00, 0x00, 0x00, 0x00, 0x01, 0x00, 0x00, 0x00, 0x65, 0xb3, 0x13, 0x3c,
  0x5f, 0x00, 0x00, 0x00, 0x73, 0x65, 0x71, 0x75, 0x65, 0x6e, 0x74, 0x69,
  0x61, 0x6c, 0x2f, 0x71, 0x75, 0x61, 0x6e, 0x74, 0x5f, 0x64, 0x65, 0x6e,
  0x73, 0x65, 0x5f, 0x33, 0x2f, 0x4d, 0x61, 0x74, 0x4d, 0x75, 0x6c, 0x3b,
  0x73, 0x65, 0x71, 0x75, 0x65, 0x6e, 0x74, 0x69, 0x61, 0x6c, 0x2f, 0x71,
  0x75, 0x61, 0x6e, 0x74, 0x5f, 0x64, 0x65, 0x6e, 0x73, 0x65, 0x5f, 0x33,
  0x2f, 0x4c, 0x61, 0x73, 0x74, 0x56, 0x61, 0x6c, 0x75, 0x65, 0x51, 0x75,
  0x61, 0x6e, 0x74, 0x2f, 0x46, 0x61, 0x6b, 0x65, 0x51, 0x75, 0x61, 0x6e,
  0x74, 0x57, 0x69, 0x74, 0x68, 0x4d, 0x69, 0x6e, 0x4d, 0x61, 0x78, 0x56,
  0x61, 0x72, 0x73, 0x00, 0x02, 0x00, 0x00, 0x00, 0x08, 0x00, 0x00, 0x00,
  0x10, 0x00, 0x00, 0x00, 0x0a, 0xfa, 0xff, 0xff, 0x00, 0x00, 0x00, 0x01,
  0x18, 0x00, 0x00, 0x00, 0x20, 0x00, 0x00, 0x00, 0x40, 0x00, 0x00, 0x00,
  0x0b, 0x00, 0x00, 0x00, 0x00, 0x00, 0x00, 0x09, 0x98, 0x00, 0x00, 0x00,
  0x02, 0x00, 0x00, 0x00, 0xff, 0xff, 0xff, 0xff, 0x10, 0x00, 0x00, 0x00,
  0xf4, 0xf9, 0xff, 0xff, 0x08, 0x00, 0x00, 0x00, 0x14, 0x00, 0x00, 0x00,
  0x01, 0x00, 0x00, 0x00, 0x80, 0xff, 0xff, 0xff, 0xff, 0xff, 0xff, 0xff,
  0x00, 0x00, 0x00, 0x00, 0x01, 0x00, 0x00, 0x00, 0x88, 0xf0, 0x78, 0x3e,
  0x5e, 0x00, 0x00, 0x00, 0x73, 0x65, 0x71, 0x75, 0x65, 0x6e, 0x74, 0x69,
  0x61, 0x6c, 0x2f, 0x71, 0x75, 0x61, 0x6e, 0x74, 0x5f, 0x64, 0x65, 0x6e,
  0x73, 0x65, 0x5f, 0x32, 0x2f, 0x4d, 0x61, 0x74, 0x4d, 0x75, 0x6c, 0x3b,
  0x73, 0x65, 0x71, 0x75, 0x65, 0x6e, 0x74, 0x69, 0x61, 0x6c, 0x2f, 0x71,
  0x75, 0x61, 0x6e, 0x74, 0x5f, 0x64, 0x65, 0x6e, 0x73, 0x65, 0x5f, 0x32,
  0x2f, 0x52, 0x65, 0x6c, 0x75, 0x3b, 0x73, 0x65, 0x71, 0x75, 0x65, 0x6e,
  0x74, 0x69, 0x61, 0x6c, 0x2f, 0x71, 0x75, 0x61, 0x6e, 0x74, 0x5f, 0x64,
  0x65, 0x6e, 0x73, 0x65, 0x5f, 0x32, 0x2f, 0x42, 0x69, 0x61, 0x73, 0x41,
  0x64, 0x64, 0x00, 0x00, 0x02, 0x00, 0x00, 0x00, 0x01, 0x00, 0x00, 0x00,
  0x10, 0x00, 0x00, 0x00, 0x8e, 0xfb, 0xff, 0xff, 0x00, 0x00, 0x00, 0x01,
  0x14, 0x00, 0x00, 0x00, 0x30, 0x00, 0x00, 0x00, 0x0a, 0x00, 0x00, 0x00,
  0x00, 0x00, 0x00, 0x02, 0x68, 0x00, 0x00, 0x00, 0xa4, 0xfa, 0xff, 0xff,
  0x08, 0x00, 0x00, 0x00, 0x10, 0x00, 0x00, 0x00, 0x01, 0x00, 0x00, 0x00,
  0x00, 0x00, 0x00, 0x00, 0x00, 0x00, 0x00, 0x00, 0x01, 0x00, 0x00, 0x00,
  0xb6, 0x8f, 0xc6, 0x39, 0x3e, 0x00, 0x00, 0x00, 0x73, 0x65, 0x71, 0x75,
  0x65, 0x6e, 0x74, 0x69, 0x61, 0x6c, 0x2f, 0x71, 0x75, 0x61, 0x6e, 0x74,
  0x5f, 0x64, 0x65, 0x6e, 0x73, 0x65, 0x5f, 0x32, 0x2f, 0x52, 0x65, 0x6c,
  0x75, 0x3b, 0x73, 0x65, 0x71, 0x75, 0x65, 0x6e, 0x74, 0x69, 0x61, 0x6c,
  0x2f, 0x71, 0x75, 0x61, 0x6e, 0x74, 0x5f, 0x64, 0x65, 0x6e, 0x73, 0x65,
  0x5f, 0x32, 0x2f, 0x42, 0x69, 0x61, 0x73, 0x41, 0x64, 0x64, 0x00, 0x00,
  0x01, 0x00, 0x00, 0x00, 0x10, 0x00, 0x00, 0x00, 0x16, 0xfc, 0xff, 0xff,
  0x00, 0x00, 0x00, 0x01, 0x14, 0x00, 0x00, 0x00, 0x34, 0x00, 0x00, 0x00,
  0x09, 0x00, 0x00, 0x00, 0x00, 0x00, 0x00, 0x09, 0x8c, 0x00, 0x00, 0x00,
  0x2c, 0xfb, 0xff, 0xff, 0x08, 0x00, 0x00, 0x00, 0x14, 0x00, 0x00, 0x00,
  0x01, 0x00, 0x00, 0x00, 0x00, 0x00, 0x00, 0x00, 0x00, 0x00, 0x00, 0x00,
  0x00, 0x00, 0x00, 0x00, 0x01, 0x00, 0x00, 0x00, 0xd3, 0xca, 0x4a, 0x3c,
  0x5f, 0x00, 0x00, 0x00, 0x73, 0x65, 0x71, 0x75, 0x65, 0x6e, 0x74, 0x69,
  0x61, 0x6c, 0x2f, 0x71, 0x75, 0x61, 0x6e, 0x74, 0x5f, 0x64, 0x65, 0x6e,
  0x73, 0x65, 0x5f, 0x32, 0x2f, 0x4d, 0x61, 0x74, 0x4d, 0x75, 0x6c, 0x3b,
  0x73, 0x65, 0x71, 0x75, 0x65, 0x6e, 0x74, 0x69, 0x61, 0x6c, 0x2f, 0x71,
  0x75, 0x61, 0x6e, 0x74, 0x5f, 0x64, 0x65, 0x6e, 0x73, 0x65, 0x5f, 0x32,
  0x2f, 0x4c, 0x61, 0x73, 0x74, 0x56, 0x61, 0x6c, 0x75, 0x65, 0x51, 0x75,
  0x61, 0x6e, 0x74, 0x2f, 0x46, 0x61, 0x6b, 0x65, 0x51, 0x75, 0x61, 0x6e,
  0x74, 0x57, 0x69, 0x74, 0x68, 0x4d, 0x69, 0x6e, 0x4d, 0x61, 0x78, 0x56,
  0x61, 0x72, 0x73, 0x00, 0x02, 0x00, 0x00, 0x00, 0x10, 0x00, 0x00, 0x00,
  0x20, 0x00, 0x00, 0x00, 0x02, 0xfc, 0xff, 0xff, 0x00, 0x00, 0x00, 0x01,
  0x18, 0x00, 0x00, 0x00, 0x20, 0x00, 0x00, 0x00, 0x40, 0x00, 0x00, 0x00,
  0x08, 0x00, 0x00, 0x00, 0x00, 0x00, 0x00, 0x09, 0x98, 0x00, 0x00, 0x00,
  0x02, 0x00, 0x00, 0x00, 0xff, 0xff, 0xff, 0xff, 0x20, 0x00, 0x00, 0x00,
  0xec, 0xfb, 0xff, 0xff, 0x08, 0x00, 0x00, 0x00, 0x14, 0x00, 0x00, 0x00,
  0x01, 0x00, 0x00, 0x00, 0x80, 0xff, 0xff, 0xff, 0xff, 0xff, 0xff, 0xff,
  0x00, 0x00, 0x00, 0x00, 0x01, 0x00, 0x00, 0x00, 0xb4, 0xa8, 0xfa, 0x3c,
  0x5e, 0x00, 0x00, 0x00, 0x73, 0x65, 0x71, 0x75, 0x65, 0x6e, 0x74, 0x69,
  0x61, 0x6c, 0x2f, 0x71, 0x75, 0x61, 0x6e, 0x74, 0x5f, 0x64, 0x65, 0x6e,
  0x73, 0x65, 0x5f, 0x31, 0x2f, 0x4d, 0x61, 0x74, 0x4d, 0x75, 0x6c, 0x3b,
  0x73, 0x65, 0x71, 0x75, 0x65, 0x6e, 0x74, 0x69, 0x61, 0x6c, 0x2f, 0x71,
  0x75, 0x61, 0x6e, 0x74, 0x5f, 0x64, 0x65, 0x6e, 0x73, 0x65, 0x5f, 0x31,
  0x2f, 0x52, 0x65, 0x6c, 0x75, 0x3b, 0x73, 0x65, 0x71, 0x75, 0x65, 0x6e,
  0x74, 0x69, 0x61, 0x6c, 0x2f, 0x71, 0x75, 0x61, 0x6e, 0x74, 0x5f, 0x64,
  0x65, 0x6e, 0x73, 0x65, 0x5f, 0x31, 0x2f, 0x42, 0x69, 0x61, 0x73, 0x41,
  0x64, 0x64, 0x00, 0x00, 0x02, 0x00, 0x00, 0x00, 0x01, 0x00, 0x00, 0x00,
  0x20, 0x00, 0x00, 0x00, 0x86, 0xfd, 0xff, 0xff, 0x00, 0x00, 0x00, 0x01,
  0x14, 0x00, 0x00, 0x00, 0x30, 0x00, 0x00, 0x00, 0x07, 0x00, 0x00, 0x00,
  0x00, 0x00, 0x00, 0x02, 0x68, 0x00, 0x00, 0x00, 0x9c, 0xfc, 0xff, 0xff,
  0x08, 0x00, 0x00, 0x00, 0x10, 0x00, 0x00, 0x00, 0x01, 0x00, 0x00, 0x00,
  0x00, 0x00, 0x00, 0x00, 0x00, 0x00, 0x00, 0x00, 0x01, 0x00, 0x00, 0x00,
  0xd5, 0x74, 0x4c, 0x38, 0x3e, 0x00, 0x00, 0x00, 0x73, 0x65, 0x71, 0x75,
  0x65, 0x6e, 0x74, 0x69, 0x61, 0x6c, 0x2f, 0x71, 0x75, 0x61, 0x6e, 0x74,
  0x5f, 0x64, 0x65, 0x6e, 0x73, 0x65, 0x5f, 0x31, 0x2f, 0x52, 0x65, 0x6c,
  0x75, 0x3b, 0x73, 0x65, 0x71, 0x75, 0x65, 0x6e, 0x74, 0x69, 0x61, 0x6c,
  0x2f, 0x71, 0x75, 0x61, 0x6e, 0x74, 0x5f, 0x64, 0x65, 0x6e, 0x73, 0x65,
  0x5f, 0x31, 0x2f, 0x42, 0x69, 0x61, 0x73, 0x41, 0x64, 0x64, 0x00, 0x00,
  0x01, 0x00, 0x00, 0x00, 0x20, 0x00, 0x00, 0x00, 0x0e, 0xfe, 0xff, 0xff,
  0x00, 0x00, 0x00, 0x01, 0x14, 0x00, 0x00, 0x00, 0x34, 0x00, 0x00, 0x00,
  0x06, 0x00, 0x00, 0x00, 0x00, 0x00, 0x00, 0x09, 0x8c, 0x00, 0x00, 0x00,
  0x24, 0xfd, 0xff, 0xff, 0x08, 0x00, 0x00, 0x00, 0x14, 0x00, 0x00, 0x00,
  0x01, 0x00, 0x00, 0x00, 0x00, 0x00, 0x00, 0x00, 0x00, 0x00, 0x00, 0x00,
  0x00, 0x00, 0x00, 0x00, 0x01, 0x00, 0x00, 0x00, 0x09, 0x0d, 0x24, 0x3c,
  0x5f, 0x00, 0x00, 0x00, 0x73, 0x65, 0x71, 0x75, 0x65, 0x6e, 0x74, 0x69,
  0x61, 0x6c, 0x2f, 0x71, 0x75, 0x61, 0x6e, 0x74, 0x5f, 0x64, 0x65, 0x6e,
  0x73, 0x65, 0x5f, 0x31, 0x2f, 0x4d, 0x61, 0x74, 0x4d, 0x75, 0x6c, 0x3b,
  0x73, 0x65, 0x71, 0x75, 0x65, 0x6e, 0x74, 0x69, 0x61, 0x6c, 0x2f, 0x71,
  0x75, 0x61, 0x6e, 0x74, 0x5f, 0x64, 0x65, 0x6e, 0x73, 0x65, 0x5f, 0x31,
  0x2f, 0x4c, 0x61, 0x73, 0x74, 0x56, 0x61, 0x6c, 0x75, 0x65, 0x51, 0x75,
  0x61, 0x6e, 0x74, 0x2f, 0x46, 0x61, 0x6b, 0x65, 0x51, 0x75, 0x61, 0x6e,
  0x74, 0x57, 0x69, 0x74, 0x68, 0x4d, 0x69, 0x6e, 0x4d, 0x61, 0x78, 0x56,
  0x61, 0x72, 0x73, 0x00, 0x02, 0x00, 0x00, 0x00, 0x20, 0x00, 0x00, 0x00,
  0x20, 0x00, 0x00, 0x00, 0xfa, 0xfd, 0xff, 0xff, 0x00, 0x00, 0x00, 0x01,
  0x18, 0x00, 0x00, 0x00, 0x20, 0x00, 0x00, 0x00, 0x3c, 0x00, 0x00, 0x00,
  0x05, 0x00, 0x00, 0x00, 0x00, 0x00, 0x00, 0x09, 0x90, 0x00, 0x00, 0x00,
  0x02, 0x00, 0x00, 0x00, 0xff, 0xff, 0xff, 0xff, 0x20, 0x00, 0x00, 0x00,
  0xe4, 0xfd, 0xff, 0xff, 0x08, 0x00, 0x00, 0x00, 0x10, 0x00, 0x00, 0x00,
  0x01, 0x00, 0x00, 0x00, 0x83, 0xff, 0xff, 0xff, 0xff, 0xff, 0xff, 0xff,
  0x01, 0x00, 0x00, 0x00, 0xb3, 0x86, 0x9f, 0x3b, 0x58, 0x00, 0x00, 0x00,
  0x73, 0x65, 0x71, 0x75, 0x65, 0x6e, 0x74, 0x69, 0x61, 0x6c, 0x2f, 0x71,
  0x75, 0x61, 0x6e, 0x74, 0x5f, 0x64, 0x65, 0x6e, 0x73, 0x65, 0x2f, 0x4d,
  0x61, 0x74, 0x4d, 0x75, 0x6c, 0x3b, 0x73, 0x65, 0x71, 0x75, 0x65, 0x6e,
  0x74, 0x69, 0x61, 0x6c, 0x2f, 0x71, 0x75, 0x61, 0x6e, 0x74, 0x5f, 0x64,
  0x65, 0x6e, 0x73, 0x65, 0x2f, 0x52, 0x65, 0x6c, 0x75, 0x3b, 0x73, 0x65,
  0x71, 0x75, 0x65, 0x6e, 0x74, 0x69, 0x61, 0x6c, 0x2f, 0x71, 0x75, 0x61,
  0x6e, 0x74, 0x5f, 0x64, 0x65, 0x6e, 0x73, 0x65, 0x2f, 0x42, 0x69, 0x61,
  0x73, 0x41, 0x64, 0x64, 0x00, 0x00, 0x00, 0x00, 0x02, 0x00, 0x00, 0x00,
  0x01, 0x00, 0x00, 0x00, 0x20, 0x00, 0x00, 0x00, 0x76, 0xff, 0xff, 0xff,
  0x00, 0x00, 0x00, 0x01, 0x14, 0x00, 0x00, 0x00, 0x34, 0x00, 0x00, 0x00,
  0x04, 0x00, 0x00, 0x00, 0x00, 0x00, 0x00, 0x02, 0x68, 0x00, 0x00, 0x00,
  0x8c, 0xfe, 0xff, 0xff, 0x08, 0x00, 0x00, 0x00, 0x14, 0x00, 0x00, 0x00,
  0x01, 0x00, 0x00, 0x00, 0x00, 0x00, 0x00, 0x00, 0x00, 0x00, 0x00, 0x00,
  0x00, 0x00, 0x00, 0x00, 0x01, 0x00, 0x00, 0x00, 0x91, 0x90, 0xc7, 0x37,
  0x3a, 0x00, 0x00, 0x00, 0x73, 0x65, 0x71, 0x75, 0x65, 0x6e, 0x74, 0x69,
  0x61, 0x6c, 0x2f, 0x71, 0x75, 0x61, 0x6e, 0x74, 0x5f, 0x64, 0x65, 0x6e,
  0x73, 0x65, 0x2f, 0x52, 0x65, 0x6c, 0x75, 0x3b, 0x73, 0x65, 0x71, 0x75,
  0x65, 0x6e, 0x74, 0x69, 0x61, 0x6c, 0x2f, 0x71, 0x75, 0x61, 0x6e, 0x74,
  0x5f, 0x64, 0x65, 0x6e, 0x73, 0x65, 0x2f, 0x42, 0x69, 0x61, 0x73, 0x41,
  0x64, 0x64, 0x00, 0x00, 0x01, 0x00, 0x00, 0x00, 0x20, 0x00, 0x00, 0x00,
  0x00, 0x00, 0x16, 0x00, 0x1c, 0x00, 0x18, 0x00, 0x17, 0x00, 0x10, 0x00,
  0x0c, 0x00, 0x08, 0x00, 0x00, 0x00, 0x00, 0x00, 0x00, 0x00, 0x07, 0x00,
  0x16, 0x00, 0x00, 0x00, 0x00, 0x00, 0x00, 0x01, 0x14, 0x00, 0x00, 0x00,
  0x34, 0x00, 0x00, 0x00, 0x03, 0x00, 0x00, 0x00, 0x00, 0x00, 0x00, 0x09,
  0x88, 0x00, 0x00, 0x00, 0x2c, 0xff, 0xff, 0xff, 0x08, 0x00, 0x00, 0x00,
  0x14, 0x00, 0x00, 0x00, 0x01, 0x00, 0x00, 0x00, 0x00, 0x00, 0x00, 0x00,
  0x00, 0x00, 0x00, 0x00, 0x00, 0x00, 0x00, 0x00, 0x01, 0x00, 0x00, 0x00,
  0x00, 0xc9, 0xc6, 0x3b, 0x5b, 0x00, 0x00, 0x00, 0x73, 0x65, 0x71, 0x75,
  0x65, 0x6e, 0x74, 0x69, 0x61, 0x6c, 0x2f, 0x71, 0x75, 0x61, 0x6e, 0x74,
  0x5f, 0x64, 0x65, 0x6e, 0x73, 0x65, 0x2f, 0x4d, 0x61, 0x74, 0x4d, 0x75,
  0x6c, 0x3b, 0x73, 0x65, 0x71, 0x75, 0x65, 0x6e, 0x74, 0x69, 0x61, 0x6c,
  0x2f, 0x71, 0x75, 0x61, 0x6e, 0x74, 0x5f, 0x64, 0x65, 0x6e, 0x73, 0x65,
  0x2f, 0x4c, 0x61, 0x73, 0x74, 0x56, 0x61, 0x6c, 0x75, 0x65, 0x51, 0x75,
  0x61, 0x6e, 0x74, 0x2f, 0x46, 0x61, 0x6b, 0x65, 0x51, 0x75, 0x61, 0x6e,
  0x74, 0x57, 0x69, 0x74, 0x68, 0x4d, 0x69, 0x6e, 0x4d, 0x61, 0x78, 0x56,
  0x61, 0x72, 0x73, 0x00, 0x02, 0x00, 0x00, 0x00, 0x20, 0x00, 0x00, 0x00,
  0x03, 0x00, 0x00, 0x00, 0x00, 0x00, 0x16, 0x00, 0x20, 0x00, 0x1c, 0x00,
  0x1b, 0x00, 0x14, 0x00, 0x10, 0x00, 0x0c, 0x00, 0x00, 0x00, 0x00, 0x00,
  0x08, 0x00, 0x07, 0x00, 0x16, 0x00, 0x00, 0x00, 0x00, 0x00, 0x00, 0x01,
  0x18, 0x00, 0x00, 0x00, 0x2c, 0x00, 0x00, 0x00, 0x48, 0x00, 0x00, 0x00,
  0x02, 0x00, 0x00, 0x00, 0x00, 0x00, 0x00, 0x09, 0x2c, 0x01, 0x00, 0x00,
  0x02, 0x00, 0x00, 0x00, 0xff, 0xff, 0xff, 0xff, 0x03, 0x00, 0x00, 0x00,
  0x0c, 0x00, 0x0c, 0x00, 0x00, 0x00, 0x00, 0x00, 0x08, 0x00, 0x04, 0x00,
  0x0c, 0x00, 0x00, 0x00, 0x08, 0x00, 0x00, 0x00, 0x10, 0x00, 0x00, 0x00,
  0x01, 0x00, 0x00, 0x00, 0x80, 0xff, 0xff, 0xff, 0xff, 0xff, 0xff, 0xff,
  0x01, 0x00, 0x00, 0x00, 0x81, 0x80, 0x80, 0x3b, 0xeb, 0x00, 0x00, 0x00,
  0x73, 0x65, 0x71, 0x75, 0x65, 0x6e, 0x74, 0x69, 0x61, 0x6c, 0x2f, 0x71,
  0x75, 0x61, 0x6e, 0x74, 0x69, 0x7a, 0x65, 0x5f, 0x6c, 0x61, 0x79, 0x65,
  0x72, 0x2f, 0x41, 0x6c, 0x6c, 0x56, 0x61, 0x6c, 0x75, 0x65, 0x73, 0x51,
  0x75, 0x61, 0x6e, 0x74, 0x69, 0x7a, 0x65, 0x2f, 0x46, 0x61, 0x6b, 0x65,
  0x51, 0x75, 0x61, 0x6e, 0x74, 0x57, 0x69, 0x74, 0x68, 0x4d, 0x69, 0x6e,
  0x4d, 0x61, 0x78, 0x56, 0x61, 0x72, 0x73, 0x3b, 0x73, 0x65, 0x71, 0x75,
  0x65, 0x6e, 0x74, 0x69, 0x61, 0x6c, 0x2f, 0x71, 0x75, 0x61, 0x6e, 0x74,
  0x69, 0x7a, 0x65, 0x5f, 0x6c, 0x61, 0x79, 0x65, 0x72, 0x2f, 0x41, 0x6c,
  0x6c, 0x56, 0x61, 0x6c, 0x75, 0x65, 0x73, 0x51, 0x75, 0x61, 0x6e, 0x74,
  0x69, 0x7a, 0x65, 0x2f, 0x46, 0x61, 0x6b, 0x65, 0x51, 0x75, 0x61, 0x6e,
  0x74, 0x57, 0x69, 0x74, 0x68, 0x4d, 0x69, 0x6e, 0x4d, 0x61, 0x78, 0x56,
  0x61, 0x72, 0x73, 0x2f, 0x52, 0x65, 0x61, 0x64, 0x56, 0x61, 0x72, 0x69,
  0x61, 0x62, 0x6c, 0x65, 0x4f, 0x70, 0x3b, 0x73, 0x65, 0x71, 0x75, 0x65,
  0x6e, 0x74, 0x69, 0x61, 0x6c, 0x2f, 0x71, 0x75, 0x61, 0x6e, 0x74, 0x69,
  0x7a, 0x65, 0x5f, 0x6c, 0x61, 0x79, 0x65, 0x72, 0x2f, 0x41, 0x6c, 0x6c,
  0x56, 0x61, 0x6c, 0x75, 0x65, 0x73, 0x51, 0x75, 0x61, 0x6e, 0x74, 0x69,
  0x7a, 0x65, 0x2f, 0x46, 0x61, 0x6b, 0x65, 0x51, 0x75, 0x61, 0x6e, 0x74,
  0x57, 0x69, 0x74, 0x68, 0x4d, 0x69, 0x6e, 0x4d, 0x61, 0x78, 0x56, 0x61,
  0x72, 0x73, 0x2f, 0x52, 0x65, 0x61, 0x64, 0x56, 0x61, 0x72, 0x69, 0x61,
  0x62, 0x6c, 0x65, 0x4f, 0x70, 0x5f, 0x31, 0x00, 0x02, 0x00, 0x00, 0x00,
  0x01, 0x00, 0x00, 0x00, 0x03, 0x00, 0x00, 0x00, 0x00, 0x00, 0x16, 0x00,
  0x1c, 0x00, 0x18, 0x00, 0x00, 0x00, 0x14, 0x00, 0x10, 0x00, 0x0c, 0x00,
  0x00, 0x00, 0x00, 0x00, 0x08, 0x00, 0x07, 0x00, 0x16, 0x00, 0x00, 0x00,
  0x00, 0x00, 0x00, 0x01, 0x14, 0x00, 0x00, 0x00, 0x20, 0x00, 0x00, 0x00,
  0x20, 0x00, 0x00, 0x00, 0x01, 0x00, 0x00, 0x00, 0x3c, 0x00, 0x00, 0x00,
  0x02, 0x00, 0x00, 0x00, 0xff, 0xff, 0xff, 0xff, 0x03, 0x00, 0x00, 0x00,
  0x04, 0x00, 0x04, 0x00, 0x04, 0x00, 0x00, 0x00, 0x1d, 0x00, 0x00, 0x00,
  0x73, 0x65, 0x72, 0x76, 0x69, 0x6e, 0x67, 0x5f, 0x64, 0x65, 0x66, 0x61,
  0x75, 0x6c, 0x74, 0x5f, 0x64, 0x65, 0x6e, 0x73, 0x65, 0x5f, 0x69, 0x6e,
  0x70, 0x75, 0x74, 0x3a, 0x30, 0x00, 0x00, 0x00, 0x02, 0x00, 0x00, 0x00,
  0x01, 0x00, 0x00, 0x00, 0x03, 0x00, 0x00, 0x00, 0x03, 0x00, 0x00, 0x00,
  0x44, 0x00, 0x00, 0x00, 0x24, 0x00, 0x00, 0x00, 0x04, 0x00, 0x00, 0x00,
  0xf0, 0xff, 0xff, 0xff, 0x06, 0x00, 0x00, 0x00, 0x02, 0x00, 0x00, 0x00,
  0x00, 0x00, 0x00, 0x06, 0x0c, 0x00, 0x10, 0x00, 0x0f, 0x00, 0x00, 0x00,
  0x08, 0x00, 0x04, 0x00, 0x0c, 0x00, 0x00, 0x00, 0x09, 0x00, 0x00, 0x00,
  0x04, 0x00, 0x00, 0x00, 0x00, 0x00, 0x00, 0x09, 0x0c, 0x00, 0x0c, 0x00,
  0x0b, 0x00, 0x00, 0x00, 0x00, 0x00, 0x04, 0x00, 0x0c, 0x00, 0x00, 0x00,
  0x72, 0x00, 0x00, 0x00, 0x00, 0x00, 0x00, 0x72
};

const unsigned int battery_model_len = 6536;

#endif // MODEL_H
