// Auto-generated QAT TensorFlow Lite Model Array

#ifndef MODEL_H
#define MODEL_H

const unsigned char sine_model[] = {
  0x20, 0x00, 0x00, 0x00, 0x54, 0x46, 0x4c, 0x33, 0x00, 0x00, 0x00, 0x00,
  0x14, 0x00, 0x20, 0x00, 0x1c, 0x00, 0x18, 0x00, 0x14, 0x00, 0x10, 0x00,
  0x0c, 0x00, 0x00, 0x00, 0x08, 0x00, 0x04, 0x00, 0x14, 0x00, 0x00, 0x00,
  0x1c, 0x00, 0x00, 0x00, 0x90, 0x00, 0x00, 0x00, 0xe8, 0x00, 0x00, 0x00,
  0xc8, 0x0a, 0x00, 0x00, 0xd8, 0x0a, 0x00, 0x00, 0x14, 0x18, 0x00, 0x00,
  0x03, 0x00, 0x00, 0x00, 0x01, 0x00, 0x00, 0x00, 0x04, 0x00, 0x00, 0x00,
  0xde, 0xf4, 0xff, 0xff, 0x0c, 0x00, 0x00, 0x00, 0x1c, 0x00, 0x00, 0x00,
  0x40, 0x00, 0x00, 0x00, 0x0f, 0x00, 0x00, 0x00, 0x73, 0x65, 0x72, 0x76,
  0x69, 0x6e, 0x67, 0x5f, 0x64, 0x65, 0x66, 0x61, 0x75, 0x6c, 0x74, 0x00,
  0x01, 0x00, 0x00, 0x00, 0x04, 0x00, 0x00, 0x00, 0x8c, 0xff, 0xff, 0xff,
  0x11, 0x00, 0x00, 0x00, 0x04, 0x00, 0x00, 0x00, 0x0e, 0x00, 0x00, 0x00,
  0x71, 0x75, 0x61, 0x6e, 0x74, 0x5f, 0x64, 0x65, 0x6e, 0x73, 0x65, 0x5f,
  0x31, 0x34, 0x00, 0x00, 0x01, 0x00, 0x00, 0x00, 0x04, 0x00, 0x00, 0x00,
  0x22, 0xf6, 0xff, 0xff, 0x04, 0x00, 0x00, 0x00, 0x0e, 0x00, 0x00, 0x00,
  0x64, 0x65, 0x6e, 0x73, 0x65, 0x5f, 0x31, 0x30, 0x5f, 0x69, 0x6e, 0x70,
  0x75, 0x74, 0x00, 0x00, 0x02, 0x00, 0x00, 0x00, 0x34, 0x00, 0x00, 0x00,
  0x04, 0x00, 0x00, 0x00, 0xdc, 0xff, 0xff, 0xff, 0x14, 0x00, 0x00, 0x00,
  0x04, 0x00, 0x00, 0x00, 0x13, 0x00, 0x00, 0x00, 0x43, 0x4f, 0x4e, 0x56,
  0x45, 0x52, 0x53, 0x49, 0x4f, 0x4e, 0x5f, 0x4d, 0x45, 0x54, 0x41, 0x44,
  0x41, 0x54, 0x41, 0x00, 0x08, 0x00, 0x0c, 0x00, 0x08, 0x00, 0x04, 0x00,
  0x08, 0x00, 0x00, 0x00, 0x13, 0x00, 0x00, 0x00, 0x04, 0x00, 0x00, 0x00,
  0x13, 0x00, 0x00, 0x00, 0x6d, 0x69, 0x6e, 0x5f, 0x72, 0x75, 0x6e, 0x74,
  0x69, 0x6d, 0x65, 0x5f, 0x76, 0x65, 0x72, 0x73, 0x69, 0x6f, 0x6e, 0x00,
  0x15, 0x00, 0x00, 0x00, 0xdc, 0x09, 0x00, 0x00, 0xd4, 0x09, 0x00, 0x00,
  0xcc, 0x09, 0x00, 0x00, 0x5c, 0x09, 0x00, 0x00, 0xc4, 0x08, 0x00, 0x00,
  0xbc, 0x08, 0x00, 0x00, 0xac, 0x04, 0x00, 0x00, 0x1c, 0x04, 0x00, 0x00,
  0x14, 0x04, 0x00, 0x00, 0x04, 0x02, 0x00, 0x00, 0xb4, 0x01, 0x00, 0x00,
  0xac, 0x01, 0x00, 0x00, 0x1c, 0x01, 0x00, 0x00, 0xec, 0x00, 0x00, 0x00,
  0xe4, 0x00, 0x00, 0x00, 0xc4, 0x00, 0x00, 0x00, 0xac, 0x00, 0x00, 0x00,
  0xa4, 0x00, 0x00, 0x00, 0x9c, 0x00, 0x00, 0x00, 0x7c, 0x00, 0x00, 0x00,
  0x04, 0x00, 0x00, 0x00, 0xf2, 0xf6, 0xff, 0xff, 0x04, 0x00, 0x00, 0x00,
  0x68, 0x00, 0x00, 0x00, 0x10, 0x00, 0x00, 0x00, 0x00, 0x00, 0x00, 0x00,
  0x08, 0x00, 0x0e, 0x00, 0x08, 0x00, 0x04, 0x00, 0x08, 0x00, 0x00, 0x00,
  0x10, 0x00, 0x00, 0x00, 0x2c, 0x00, 0x00, 0x00, 0x00, 0x00, 0x06, 0x00,
  0x08, 0x00, 0x04, 0x00, 0x06, 0x00, 0x00, 0x00, 0x04, 0x00, 0x00, 0x00,
  0x02, 0x00, 0x00, 0x00, 0xeb, 0x03, 0x00, 0x00, 0xd0, 0x07, 0x00, 0x00,
  0x0c, 0x00, 0x18, 0x00, 0x14, 0x00, 0x10, 0x00, 0x0c, 0x00, 0x04, 0x00,
  0x0c, 0x00, 0x00, 0x00, 0x49, 0xfc, 0xe2, 0x7a, 0x89, 0xd6, 0xe8, 0x43,
  0x02, 0x00, 0x00, 0x00, 0x02, 0x00, 0x00, 0x00, 0x04, 0x00, 0x00, 0x00,
  0x06, 0x00, 0x00, 0x00, 0x32, 0x2e, 0x32, 0x30, 0x2e, 0x30, 0x00, 0x00,
  0x66, 0xf7, 0xff, 0xff, 0x04, 0x00, 0x00, 0x00, 0x10, 0x00, 0x00, 0x00,
  0x31, 0x2e, 0x31, 0x34, 0x2e, 0x30, 0x00, 0x00, 0x00, 0x00, 0x00, 0x00,
  0x00, 0x00, 0x00, 0x00, 0xec, 0xe9, 0xff, 0xff, 0xf0, 0xe9, 0xff, 0xff,
  0x8a, 0xf7, 0xff, 0xff, 0x04, 0x00, 0x00, 0x00, 0x08, 0x00, 0x00, 0x00,
  0xc0, 0xff, 0xff, 0xff, 0x54, 0x00, 0x00, 0x00, 0x9e, 0xf7, 0xff, 0xff,
  0x04, 0x00, 0x00, 0x00, 0x10, 0x00, 0x00, 0x00, 0xf6, 0x15, 0xfc, 0xe9,
  0x4e, 0x0f, 0x46, 0x4e, 0xef, 0x5b, 0x14, 0x16, 0xbf, 0x01, 0x10, 0x81,
  0x24, 0xea, 0xff, 0xff, 0xbe, 0xf7, 0xff, 0xff, 0x04, 0x00, 0x00, 0x00,
  0x20, 0x00, 0x00, 0x00, 0xff, 0xff, 0xff, 0xff, 0x0f, 0x00, 0x00, 0x00,
  0x85, 0x00, 0x00, 0x00, 0x3c, 0x00, 0x00, 0x00, 0xf5, 0xff, 0xff, 0xff,
  0xeb, 0xff, 0xff, 0xff, 0xeb, 0xff, 0xff, 0xff, 0xff, 0xff, 0xff, 0xff,
  0xea, 0xf7, 0xff, 0xff, 0x04, 0x00, 0x00, 0x00, 0x80, 0x00, 0x00, 0x00,
  0x0a, 0x01, 0xfa, 0xf2, 0x14, 0x0d, 0xef, 0xfa, 0x04, 0xfb, 0xf7, 0x09,
  0xfc, 0xeb, 0xff, 0x06, 0xf3, 0x1d, 0xf8, 0x11, 0xfa, 0x01, 0xf0, 0x20,
  0x13, 0xf5, 0xff, 0xef, 0x16, 0xfb, 0x12, 0x05, 0x34, 0x59, 0xfb, 0x6a,
  0xf6, 0xf8, 0x00, 0x68, 0x0a, 0x70, 0x72, 0x7f, 0x15, 0xec, 0x0f, 0x0a,
  0xfb, 0xf5, 0xf4, 0x17, 0xf3, 0x08, 0x10, 0x23, 0xf1, 0xf7, 0x01, 0x08,
  0xf1, 0xfc, 0xf9, 0xf3, 0xf7, 0xe2, 0x0c, 0xec, 0x0e, 0xef, 0xee, 0x00,
  0xf0, 0x03, 0x00, 0xf0, 0xed, 0xf1, 0xf3, 0x0c, 0x08, 0x12, 0x09, 0xe8,
  0xf6, 0xfb, 0x01, 0x07, 0xfc, 0x0c, 0xf9, 0xd8, 0x05, 0xfd, 0xfd, 0x07,
  0x08, 0x20, 0xff, 0xf4, 0xfc, 0x0f, 0xf7, 0x10, 0x13, 0x0f, 0x0c, 0xfc,
  0xef, 0x08, 0xee, 0xf3, 0xf3, 0xf6, 0x0e, 0x0b, 0xf7, 0x0d, 0x09, 0xf9,
  0xf6, 0xf2, 0xf8, 0xf5, 0xf2, 0xec, 0xf9, 0x09, 0xe0, 0xea, 0xff, 0xff,
  0x7a, 0xf8, 0xff, 0xff, 0x04, 0x00, 0x00, 0x00, 0x40, 0x00, 0x00, 0x00,
  0xf5, 0xff, 0xff, 0xff, 0xfb, 0xff, 0xff, 0xff, 0xfc, 0xff, 0xff, 0xff,
  0x4b, 0x00, 0x00, 0x00, 0xfc, 0xff, 0xff, 0xff, 0xfd, 0xff, 0xff, 0xff,
  0xff, 0xff, 0xff, 0xff, 0x39, 0x00, 0x00, 0x00, 0x00, 0x00, 0x00, 0x00,
  0x00, 0x00, 0x00, 0x00, 0x40, 0x00, 0x00, 0x00, 0x46, 0x00, 0x00, 0x00,
  0x03, 0x00, 0x00, 0x00, 0xff, 0xff, 0xff, 0xff, 0x01, 0x00, 0x00, 0x00,
  0xf9, 0xff, 0xff, 0xff, 0xc6, 0xf8, 0xff, 0xff, 0x04, 0x00, 0x00, 0x00,
  0x00, 0x02, 0x00, 0x00, 0xe5, 0xe8, 0xfa, 0x0f, 0xdf, 0x06, 0xe8, 0x16,
  0xac, 0xe5, 0xcb, 0xa2, 0x0f, 0x04, 0xfc, 0xf5, 0xff, 0x10, 0xce, 0xe9,
  0xfe, 0xe2, 0x13, 0xf8, 0xec, 0x0a, 0xeb, 0xda, 0x14, 0xfa, 0xef, 0x08,
  0x23, 0x04, 0xae, 0x35, 0x97, 0xf4, 0x21, 0xea, 0x01, 0x1d, 0xbb, 0x9c,
  0x20, 0xe1, 0x1a, 0xf8, 0x00, 0x29, 0x24, 0xfa, 0x02, 0x4d, 0x1b, 0x1a,
  0x16, 0xeb, 0x18, 0x0d, 0x0b, 0xb0, 0x11, 0x1f, 0x20, 0x03, 0xe2, 0x16,
  0xe0, 0xfe, 0xe7, 0x0a, 0xf1, 0xeb, 0xf6, 0xe9, 0xf0, 0xdc, 0xf6, 0xf0,
  0x18, 0xff, 0xfa, 0x1c, 0xfe, 0xf2, 0xf9, 0x08, 0xe8, 0xec, 0xee, 0xfb,
  0x0b, 0x0f, 0xfb, 0xeb, 0x1e, 0x29, 0x45, 0xbc, 0x3f, 0x22, 0x37, 0xd5,
  0x18, 0xf2, 0x24, 0x47, 0x04, 0xfc, 0x04, 0x1a, 0xea, 0xcd, 0x14, 0x15,
  0x14, 0xb8, 0x0f, 0xf2, 0xfd, 0x1e, 0x04, 0x0d, 0xeb, 0x45, 0xe7, 0x00,
  0xde, 0xf3, 0x0b, 0xe0, 0xe4, 0xfc, 0x13, 0xec, 0xf1, 0xeb, 0xec, 0xf9,
  0xec, 0xf6, 0x1c, 0xf4, 0x08, 0x09, 0x06, 0x17, 0x07, 0x07, 0xe5, 0xef,
  0xe9, 0xf9, 0x01, 0xe7, 0xf1, 0xe3, 0xe7, 0xfb, 0xe2, 0xf2, 0xe2, 0x0e,
  0xf6, 0x07, 0xe2, 0xf9, 0xf7, 0xe5, 0xe1, 0xdc, 0x08, 0x01, 0xfb, 0xe8,
  0xee, 0xdc, 0x0c, 0x04, 0x02, 0xf4, 0x02, 0xe3, 0xdf, 0x15, 0xe2, 0x09,
  0x1e, 0x07, 0x01, 0xf9, 0xfc, 0x02, 0x00, 0xef, 0x11, 0x11, 0xf6, 0xef,
  0x1b, 0xe6, 0xf6, 0x11, 0x02, 0xf4, 0xe2, 0xfc, 0xf8, 0xed, 0xf0, 0x06,
  0xf5, 0x04, 0xe7, 0xfa, 0x0f, 0xe8, 0xed, 0xff, 0x08, 0x08, 0xf2, 0xfd,
  0x22, 0x2f, 0x01, 0xfb, 0x06, 0x39, 0x04, 0xcd, 0x00, 0x0c, 0x37, 0x1b,
  0xfe, 0xc7, 0xe9, 0x1a, 0x12, 0xf3, 0x13, 0x1d, 0x06, 0x16, 0x10, 0x0a,
  0x33, 0xea, 0x0e, 0xfc, 0xfe, 0x14, 0x02, 0x2f, 0xf2, 0x09, 0xe6, 0xe9,
  0xf6, 0xf2, 0x17, 0xe8, 0xe2, 0xfc, 0x01, 0xe9, 0xf1, 0x17, 0x05, 0x03,
  0xf1, 0x00, 0xe4, 0xe8, 0xe9, 0x16, 0xff, 0xeb, 0xfe, 0xf6, 0xfb, 0x01,
  0xf9, 0x00, 0xfd, 0xe9, 0xe4, 0x03, 0xe2, 0x37, 0xeb, 0xfb, 0xdb, 0x1c,
  0xca, 0xda, 0xce, 0xfe, 0xf9, 0x1f, 0xf7, 0x02, 0xe4, 0x3d, 0xfb, 0x15,
  0xf7, 0x0c, 0x04, 0x10, 0xf7, 0x17, 0xea, 0xfe, 0xfc, 0x01, 0xef, 0xea,
  0xc3, 0x17, 0x74, 0x04, 0x72, 0xf3, 0xf6, 0x10, 0xb9, 0x0f, 0x12, 0x36,
  0xe7, 0x54, 0xf2, 0x2b, 0xf4, 0xd4, 0x0b, 0x12, 0x3a, 0xd8, 0xfa, 0xdc,
  0x14, 0xfa, 0x11, 0x24, 0xea, 0x42, 0x1f, 0xde, 0xdf, 0x30, 0x20, 0xce,
  0x6f, 0x17, 0x0e, 0xee, 0xc9, 0x03, 0x15, 0x4f, 0x2a, 0x01, 0xf0, 0x0e,
  0xe9, 0xcd, 0x2a, 0x0b, 0x18, 0xd7, 0xf6, 0xc6, 0xfb, 0xfa, 0xf2, 0x12,
  0xe9, 0x27, 0xfc, 0x0a, 0x8c, 0x06, 0x31, 0xee, 0x7a, 0xf3, 0x97, 0x1f,
  0x02, 0xb2, 0x30, 0x35, 0x02, 0x28, 0xe8, 0xf8, 0xea, 0xe9, 0xa6, 0x18,
  0x06, 0xbb, 0xf4, 0xc6, 0x81, 0x18, 0x96, 0xdf, 0x12, 0x4e, 0xec, 0x8a,
  0xe6, 0x18, 0xf1, 0xfc, 0x03, 0xe1, 0xe2, 0xe8, 0xf0, 0xfb, 0x0d, 0x1a,
  0x1b, 0xf8, 0xf2, 0xe3, 0x00, 0xf8, 0xf2, 0x00, 0xf6, 0x0e, 0x07, 0xf8,
  0xe3, 0xed, 0x08, 0x09, 0x13, 0xff, 0xf1, 0xf7, 0x06, 0x08, 0x00, 0xf8,
  0xfa, 0x00, 0xfd, 0xec, 0xfe, 0x09, 0x0a, 0xf5, 0xfa, 0xf0, 0xed, 0xea,
  0x1b, 0x17, 0x05, 0x15, 0xf5, 0x01, 0xeb, 0xe3, 0xe2, 0xf9, 0x00, 0xfb,
  0xf6, 0x12, 0xe5, 0x05, 0xee, 0xf6, 0x07, 0xe2, 0xe3, 0x02, 0xd6, 0xdc,
  0xe4, 0xe8, 0xee, 0xf9, 0x04, 0xf5, 0x11, 0x06, 0xf2, 0xeb, 0xe2, 0xf9,
  0x0b, 0xf9, 0x10, 0x0e, 0x03, 0xf2, 0xf9, 0xd7, 0xf0, 0x09, 0x0c, 0xda,
  0x3c, 0xed, 0xff, 0xff, 0xd6, 0xfa, 0xff, 0xff, 0x04, 0x00, 0x00, 0x00,
  0x80, 0x00, 0x00, 0x00, 0xf0, 0x00, 0x00, 0x00, 0x76, 0x02, 0x00, 0x00,
  0x52, 0x02, 0x00, 0x00, 0xa0, 0xfe, 0xff, 0xff, 0x29, 0x02, 0x00, 0x00,
  0x68, 0x02, 0x00, 0x00, 0x2e, 0x02, 0x00, 0x00, 0xd8, 0xfe, 0xff, 0xff,
  0xfd, 0xff, 0xff, 0xff, 0xf7, 0x00, 0x00, 0x00, 0x5f, 0x02, 0x00, 0x00,
  0xa3, 0x01, 0x00, 0x00, 0x36, 0x01, 0x00, 0x00, 0x66, 0xff, 0xff, 0xff,
  0xf1, 0xff, 0xff, 0xff, 0x4f, 0x02, 0x00, 0x00, 0xfb, 0xff, 0xff, 0xff,
  0x0c, 0xfe, 0xff, 0xff, 0xbc, 0x01, 0x00, 0x00, 0x00, 0x00, 0x00, 0x00,
  0x05, 0x03, 0x00, 0x00, 0x20, 0xff, 0xff, 0xff, 0xf0, 0xff, 0xff, 0xff,
  0x05, 0xff, 0xff, 0xff, 0x45, 0x01, 0x00, 0x00, 0xdd, 0xff, 0xff, 0xff,
  0xee, 0x00, 0x00, 0x00, 0x94, 0x01, 0x00, 0x00, 0xf0, 0xff, 0xff, 0xff,
  0x2d, 0x02, 0x00, 0x00, 0x9f, 0x00, 0x00, 0x00, 0x76, 0x01, 0x00, 0x00,
  0x62, 0xfb, 0xff, 0xff, 0x04, 0x00, 0x00, 0x00, 0x00, 0x04, 0x00, 0x00,
  0x20, 0x04, 0xfd, 0x0e, 0x17, 0xf6, 0x1c, 0x11, 0xd6, 0xfa, 0x16, 0xfd,
  0x06, 0x15, 0x11, 0x1d, 0x07, 0x02, 0x01, 0x00, 0xf5, 0xf0, 0x0f, 0xfb,
  0x0e, 0xfb, 0x29, 0xf3, 0x14, 0x18, 0x1e, 0xfa, 0x33, 0x04, 0x0a, 0x29,
  0xf1, 0xe0, 0x0a, 0x1b, 0xf9, 0xef, 0x11, 0x03, 0x10, 0x1a, 0x08, 0xf6,
  0xfb, 0x1f, 0xf9, 0xf7, 0xf3, 0xee, 0xf2, 0x24, 0x51, 0x03, 0xf7, 0x01,
  0x15, 0x52, 0x1b, 0xf8, 0x10, 0x1c, 0xfa, 0x0e, 0xcc, 0xf1, 0x09, 0x10,
  0xff, 0xfa, 0x07, 0x1b, 0x0e, 0x0a, 0xf3, 0xfd, 0x05, 0x29, 0x0e, 0x10,
  0x17, 0xf6, 0x13, 0x31, 0x7f, 0x02, 0xd8, 0x00, 0x00, 0x6a, 0xe3, 0x02,
  0xfc, 0x22, 0x02, 0x03, 0x21, 0xfe, 0x23, 0x05, 0x01, 0x06, 0x0d, 0xe9,
  0xfc, 0x0f, 0xf6, 0x22, 0x0e, 0xd5, 0x01, 0xfd, 0xfa, 0x07, 0xf3, 0xf2,
  0xb3, 0xfc, 0x4a, 0x0a, 0x2f, 0xb1, 0x3a, 0x09, 0x10, 0x18, 0x0c, 0x24,
  0xd2, 0x00, 0x07, 0x17, 0xfb, 0xfd, 0x02, 0x08, 0x01, 0x08, 0xf2, 0xe5,
  0x08, 0x2d, 0x0b, 0xf8, 0xf4, 0x0e, 0xfc, 0x33, 0x7a, 0xf1, 0xc9, 0x12,
  0xf3, 0x72, 0xf8, 0xf0, 0x28, 0x11, 0xef, 0x17, 0xf3, 0xec, 0x0e, 0x22,
  0xf0, 0x00, 0x10, 0x07, 0x0e, 0x11, 0x0a, 0xeb, 0xfd, 0x32, 0xf0, 0xfc,
  0xfc, 0x01, 0x0b, 0x26, 0x60, 0xea, 0x02, 0x0c, 0xfe, 0x4a, 0x16, 0xf3,
  0x1c, 0x12, 0xfc, 0x16, 0xf3, 0xf3, 0x11, 0x0e, 0x04, 0x03, 0x16, 0xf1,
  0x12, 0x11, 0x0e, 0x04, 0x00, 0x12, 0xe9, 0xf8, 0xeb, 0xef, 0xe9, 0x26,
  0x3b, 0xf5, 0x01, 0xfa, 0xfe, 0x38, 0x22, 0xfc, 0xee, 0x0c, 0x0e, 0xf7,
  0x12, 0x0b, 0xf9, 0x0a, 0xa9, 0x12, 0xfe, 0x0e, 0x17, 0x06, 0x0b, 0x1e,
  0x17, 0xfe, 0x2a, 0x13, 0xf1, 0x14, 0x08, 0xfa, 0xe9, 0x17, 0xf1, 0x09,
  0x28, 0xed, 0xd6, 0x0c, 0x1f, 0x1b, 0xf4, 0x17, 0x1f, 0xea, 0x11, 0x33,
  0xc6, 0x09, 0x29, 0x05, 0xe7, 0x14, 0x0b, 0x11, 0x17, 0x23, 0x16, 0x11,
  0x08, 0xf7, 0x1d, 0x38, 0x36, 0x0b, 0x17, 0x15, 0xe1, 0x1b, 0x21, 0xfd,
  0x16, 0x08, 0xef, 0x17, 0x19, 0xf8, 0x04, 0x05, 0x0c, 0x0c, 0x11, 0xf9,
  0x23, 0xf7, 0x09, 0x1d, 0x0c, 0x0b, 0xf3, 0xfe, 0xdb, 0xec, 0xe5, 0xf3,
  0xfb, 0xef, 0x18, 0xfb, 0x10, 0x06, 0x1f, 0xfa, 0x1f, 0x01, 0x0c, 0x16,
  0xd3, 0x00, 0x0d, 0x0e, 0x01, 0xf5, 0xf3, 0x14, 0xfd, 0x09, 0x0f, 0xd5,
  0x00, 0x59, 0x04, 0x09, 0xf9, 0xf1, 0xf9, 0x1c, 0x7b, 0xed, 0xd3, 0x0b,
  0x04, 0x5c, 0x08, 0xf5, 0x18, 0x0a, 0x10, 0x20, 0xd8, 0xfc, 0x10, 0x1f,
  0xff, 0x02, 0xf4, 0x18, 0xfd, 0x0d, 0xfb, 0xf4, 0xf8, 0x43, 0x0f, 0x0e,
  0xf6, 0x07, 0xf2, 0x32, 0x5f, 0xea, 0xd3, 0x06, 0xed, 0x6b, 0xf8, 0xf0,
  0x13, 0x19, 0x0f, 0x18, 0xf9, 0x08, 0x0a, 0x0f, 0x11, 0xf8, 0xff, 0x07,
  0x23, 0x08, 0x0a, 0x03, 0xff, 0xff, 0x11, 0x02, 0xe6, 0xfe, 0xe9, 0x1f,
  0x14, 0xfb, 0x0b, 0xf6, 0x0c, 0x16, 0x22, 0xfa, 0xe8, 0xc5, 0x13, 0xe7,
  0xe8, 0x04, 0xe5, 0xdd, 0xfe, 0x1a, 0xf7, 0x0e, 0x06, 0xfa, 0xf4, 0xfc,
  0x04, 0xfb, 0x10, 0x09, 0xfa, 0x0a, 0xc6, 0xdd, 0xde, 0x11, 0xd3, 0x05,
  0xd8, 0xf0, 0xb4, 0x04, 0xed, 0xf0, 0xfb, 0xfb, 0x04, 0x01, 0xfe, 0x08,
  0x06, 0x0a, 0x02, 0x07, 0x05, 0xf2, 0x00, 0x0f, 0xf4, 0x03, 0x06, 0x01,
  0x00, 0x0b, 0xfa, 0xf9, 0xf3, 0x07, 0xf5, 0xf8, 0x0c, 0xf0, 0xfb, 0xff,
  0x1f, 0x0e, 0xff, 0x1e, 0xe9, 0xfa, 0x0e, 0x11, 0x0d, 0xf6, 0x01, 0xf5,
  0x2a, 0x0c, 0x01, 0xe9, 0x05, 0x1a, 0xfa, 0x07, 0xf2, 0xe7, 0x09, 0x25,
  0x5b, 0xf3, 0x02, 0x05, 0x02, 0x52, 0x1e, 0xfa, 0x01, 0xf2, 0x0e, 0xf2,
  0xf7, 0x0d, 0x00, 0xf7, 0xf5, 0x0e, 0xf7, 0x0b, 0x00, 0xf3, 0xf1, 0xfb,
  0xf3, 0xfd, 0x01, 0x02, 0x08, 0x0b, 0xff, 0xff, 0x0c, 0x03, 0xf0, 0x02,
  0x01, 0xfd, 0xfc, 0xf4, 0xeb, 0x0a, 0xff, 0x02, 0x2b, 0x0e, 0x0e, 0x0b,
  0xf8, 0xfd, 0x18, 0xfb, 0xed, 0x09, 0x16, 0x35, 0x0b, 0xd0, 0xf9, 0x0c,
  0x13, 0x02, 0x13, 0xd6, 0xa4, 0x07, 0x35, 0xff, 0x17, 0xb3, 0x21, 0x14,
  0x2b, 0x03, 0xf1, 0x18, 0xfb, 0xf6, 0x1d, 0x0f, 0x05, 0xec, 0x15, 0xea,
  0x1a, 0x0b, 0xf7, 0xf8, 0x09, 0x09, 0xff, 0x05, 0xd8, 0xfe, 0xf5, 0x24,
  0x30, 0xf9, 0x01, 0x00, 0x15, 0x2b, 0x2f, 0xf8, 0x05, 0xfd, 0xff, 0xf1,
  0xfb, 0xf1, 0xf2, 0xf3, 0xf4, 0xfe, 0xf8, 0xff, 0x01, 0xfb, 0x07, 0xf7,
  0xf3, 0x0f, 0xf6, 0xf3, 0x0f, 0xf6, 0xf4, 0x08, 0xf5, 0xf7, 0x0a, 0xf8,
  0xfc, 0x0f, 0xf1, 0xf4, 0x2a, 0x18, 0x6a, 0x34, 0x14, 0x5c, 0x2b, 0x0c,
  0x22, 0x69, 0x41, 0x76, 0x11, 0x55, 0x55, 0xdc, 0x59, 0x7a, 0x7d, 0x59,
  0xe4, 0x6e, 0x04, 0x29, 0x64, 0x5d, 0xf7, 0x65, 0x06, 0x76, 0x17, 0x59,
  0x05, 0x04, 0xfd, 0x0a, 0x36, 0xf8, 0x16, 0x1d, 0xe7, 0xf6, 0x14, 0xf4,
  0x00, 0x0d, 0x0f, 0x33, 0x01, 0xc0, 0xff, 0x0d, 0x07, 0xff, 0x05, 0xdb,
  0xa7, 0x0a, 0x33, 0x04, 0x16, 0xbd, 0x40, 0x00, 0xfa, 0xfa, 0xf5, 0xf3,
  0x02, 0x06, 0x07, 0x0a, 0xf4, 0x0b, 0xf2, 0xfe, 0x02, 0x00, 0xf6, 0x03,
  0xf4, 0x00, 0x09, 0x01, 0x09, 0xf4, 0x08, 0x0b, 0xf4, 0xf4, 0xfa, 0xf8,
  0xf6, 0xfe, 0xfa, 0xf7, 0x0e, 0xf1, 0xef, 0x8d, 0x10, 0xf8, 0xff, 0x0a,
  0x03, 0x09, 0xf7, 0xdc, 0xb8, 0x0c, 0xff, 0x04, 0xfb, 0xf0, 0x0a, 0x05,
  0xa8, 0xf7, 0x1c, 0xc7, 0xc5, 0xeb, 0x14, 0xff, 0x08, 0xf4, 0x14, 0x1a,
  0x22, 0x14, 0xf0, 0x08, 0x03, 0xeb, 0x24, 0x17, 0xf2, 0xfe, 0x15, 0x05,
  0x1e, 0x16, 0x03, 0x1a, 0x06, 0x03, 0xfe, 0xfa, 0xe2, 0xf0, 0xf3, 0x09,
  0x1d, 0x02, 0x11, 0xf3, 0x1e, 0x2c, 0x2f, 0xf4, 0xf0, 0xf1, 0x0b, 0xe8,
  0xf7, 0xf3, 0xf2, 0xd6, 0x02, 0x0d, 0x0b, 0xfa, 0x13, 0xf6, 0xfe, 0xfd,
  0xf7, 0x18, 0x06, 0xf4, 0xfe, 0x08, 0xf4, 0x03, 0x09, 0x10, 0x02, 0x04,
  0xf3, 0xf3, 0xdf, 0x01, 0x21, 0x16, 0x02, 0x04, 0x04, 0xed, 0x1e, 0x07,
  0xfe, 0xf9, 0x10, 0xec, 0x1c, 0xff, 0x08, 0x0e, 0xf6, 0x02, 0xe7, 0x08,
  0xf5, 0xec, 0x06, 0xfb, 0xfd, 0x03, 0x13, 0x09, 0x14, 0x14, 0x31, 0x0a,
  0x17, 0x1e, 0x00, 0x0d, 0x00, 0xf8, 0x15, 0x18, 0x13, 0xf8, 0x03, 0xff,
  0x24, 0xfd, 0xfe, 0x0c, 0xfe, 0xfe, 0x09, 0x01, 0xe2, 0x06, 0xed, 0x05,
  0x37, 0xff, 0xfc, 0xf9, 0x1a, 0x38, 0x25, 0xf5, 0xfa, 0xfc, 0x05, 0x03,
  0x02, 0xf9, 0x06, 0xf5, 0xfa, 0x06, 0x08, 0xfe, 0xfe, 0xfc, 0xfb, 0xfc,
  0xfa, 0xfe, 0xfe, 0xfa, 0xff, 0x0c, 0x02, 0x07, 0x03, 0x07, 0xfd, 0xf7,
  0xf1, 0x09, 0x05, 0x00, 0x0e, 0x17, 0xfd, 0x1b, 0xd8, 0xf9, 0x0b, 0x29,
  0x1f, 0xf5, 0xed, 0x0e, 0x12, 0x02, 0x07, 0xe0, 0xff, 0x31, 0xfd, 0x0e,
  0xfc, 0x03, 0x01, 0x2b, 0x6c, 0x03, 0xcf, 0x0e, 0x09, 0x4f, 0xf3, 0xf1,
  0x09, 0xfb, 0xfd, 0x07, 0x17, 0xf6, 0x13, 0xfe, 0x05, 0xf9, 0x14, 0xeb,
  0x1e, 0xf2, 0xf6, 0x12, 0x00, 0xfd, 0x09, 0x09, 0xf0, 0xf5, 0xd7, 0xf8,
  0xe2, 0x09, 0x10, 0xf1, 0x1b, 0xf4, 0x1e, 0x05, 0x1d, 0xfe, 0xef, 0x1b,
  0x14, 0xf8, 0x24, 0x12, 0xfb, 0xe7, 0x12, 0xef, 0x0e, 0x01, 0x03, 0xfd,
  0x11, 0x0e, 0xe8, 0xfb, 0xf6, 0xfe, 0x05, 0x14, 0x22, 0xec, 0x0f, 0x00,
  0x22, 0x1a, 0x2b, 0x0f, 0xd8, 0xf1, 0xff, 0xff, 0x72, 0xff, 0xff, 0xff,
  0x04, 0x00, 0x00, 0x00, 0x80, 0x00, 0x00, 0x00, 0xee, 0x02, 0x00, 0x00,
  0xb3, 0x02, 0x00, 0x00, 0x3f, 0x00, 0x00, 0x00, 0x77, 0x03, 0x00, 0x00,
  0x7f, 0xfd, 0xff, 0xff, 0xc1, 0xfd, 0xff, 0xff, 0xe7, 0x01, 0x00, 0x00,
  0x43, 0x03, 0x00, 0x00, 0x77, 0x00, 0x00, 0x00, 0x78, 0xfd, 0xff, 0xff,
  0x03, 0x01, 0x00, 0x00, 0x71, 0x01, 0x00, 0x00, 0x61, 0x02, 0x00, 0x00,
  0xf8, 0x02, 0x00, 0x00, 0x6e, 0x01, 0x00, 0x00, 0x68, 0xfe, 0xff, 0xff,
  0xf4, 0x01, 0x00, 0x00, 0x57, 0x03, 0x00, 0x00, 0xc2, 0x00, 0x00, 0x00,
  0x80, 0x02, 0x00, 0x00, 0x38, 0xff, 0xff, 0xff, 0x24, 0xff, 0xff, 0xff,
  0xe4, 0xfe, 0xff, 0xff, 0xf2, 0x02, 0x00, 0x00, 0x21, 0x03, 0x00, 0x00,
  0x9f, 0xfd, 0xff, 0xff, 0x83, 0xfe, 0xff, 0xff, 0x22, 0x03, 0x00, 0x00,
  0xc4, 0x00, 0x00, 0x00, 0xcb, 0x03, 0x00, 0x00, 0x35, 0x01, 0x00, 0x00,
  0x3e, 0xfd, 0xff, 0xff, 0x00, 0x00, 0x06, 0x00, 0x08, 0x00, 0x04, 0x00,
  0x06, 0x00, 0x00, 0x00, 0x04, 0x00, 0x00, 0x00, 0x60, 0x00, 0x00, 0x00,
  0x1c, 0xf2, 0xfd, 0x1b, 0x0d, 0xfd, 0xab, 0x15, 0x28, 0x05, 0x31, 0x00,
  0x79, 0x0f, 0x0a, 0xcc, 0x36, 0x1e, 0x40, 0x09, 0xff, 0x17, 0xf4, 0xfb,
  0xda, 0x27, 0xe4, 0x97, 0xee, 0x2f, 0x4e, 0x19, 0x0c, 0xb3, 0x29, 0x11,
  0x09, 0x04, 0xed, 0x33, 0xfd, 0x21, 0x4d, 0xfd, 0x29, 0x45, 0x0a, 0xff,
  0x37, 0x38, 0x47, 0xd2, 0xff, 0x01, 0xaa, 0xd2, 0x16, 0xf3, 0x2d, 0x30,
  0xd9, 0xea, 0xd9, 0xb9, 0x1e, 0x22, 0xe0, 0xc9, 0x01, 0xe1, 0xff, 0x00,
  0xd5, 0x00, 0x00, 0xfe, 0x19, 0x27, 0x7f, 0x07, 0xff, 0xea, 0xef, 0x30,
  0x47, 0xce, 0xdb, 0xda, 0xf8, 0x00, 0x73, 0xf8, 0xfb, 0x14, 0xc7, 0x26,
  0xdc, 0xf2, 0xff, 0xff, 0xe0, 0xf2, 0xff, 0xff, 0xe4, 0xf2, 0xff, 0xff,
  0x0f, 0x00, 0x00, 0x00, 0x4d, 0x4c, 0x49, 0x52, 0x20, 0x43, 0x6f, 0x6e,
  0x76, 0x65, 0x72, 0x74, 0x65, 0x64, 0x2e, 0x00, 0x01, 0x00, 0x00, 0x00,
  0x14, 0x00, 0x00, 0x00, 0x00, 0x00, 0x0e, 0x00, 0x18, 0x00, 0x14, 0x00,
  0x10, 0x00, 0x0c, 0x00, 0x08, 0x00, 0x04, 0x00, 0x0e, 0x00, 0x00, 0x00,
  0x14, 0x00, 0x00, 0x00, 0x1c, 0x00, 0x00, 0x00, 0xc8, 0x01, 0x00, 0x00,
  0xcc, 0x01, 0x00, 0x00, 0xd0, 0x01, 0x00, 0x00, 0x04, 0x00, 0x00, 0x00,
  0x6d, 0x61, 0x69, 0x6e, 0x00, 0x00, 0x00, 0x00, 0x07, 0x00, 0x00, 0x00,
  0x90, 0x01, 0x00, 0x00, 0x40, 0x01, 0x00, 0x00, 0xf4, 0x00, 0x00, 0x00,
  0xa8, 0x00, 0x00, 0x00, 0x6c, 0x00, 0x00, 0x00, 0x34, 0x00, 0x00, 0x00,
  0x10, 0x00, 0x00, 0x00, 0x00, 0x00, 0x0a, 0x00, 0x10, 0x00, 0x0c, 0x00,
  0x08, 0x00, 0x04, 0x00, 0x0a, 0x00, 0x00, 0x00, 0x0c, 0x00, 0x00, 0x00,
  0x10, 0x00, 0x00, 0x00, 0x02, 0x00, 0x00, 0x00, 0x01, 0x00, 0x00, 0x00,
  0x11, 0x00, 0x00, 0x00, 0x01, 0x00, 0x00, 0x00, 0x10, 0x00, 0x00, 0x00,
  0x5a, 0xff, 0xff, 0xff, 0x14, 0x00, 0x00, 0x00, 0x00, 0x00, 0x00, 0x08,
  0x10, 0x00, 0x00, 0x00, 0x14, 0x00, 0x00, 0x00, 0x01, 0x00, 0x00, 0x00,
  0x9c, 0xf3, 0xff, 0xff, 0x01, 0x00, 0x00, 0x00, 0x10, 0x00, 0x00, 0x00,
  0x03, 0x00, 0x00, 0x00, 0x0d, 0x00, 0x00, 0x00, 0x0e, 0x00, 0x00, 0x00,
  0x0f, 0x00, 0x00, 0x00, 0x8e, 0xff, 0xff, 0xff, 0x14, 0x00, 0x00, 0x00,
  0x00, 0x00, 0x00, 0x08, 0x14, 0x00, 0x00, 0x00, 0x18, 0x00, 0x00, 0x00,
  0x01, 0x00, 0x00, 0x00, 0x36, 0xff, 0xff, 0xff, 0x00, 0x00, 0x00, 0x01,
  0x01, 0x00, 0x00, 0x00, 0x0d, 0x00, 0x00, 0x00, 0x03, 0x00, 0x00, 0x00,
  0x0a, 0x00, 0x00, 0x00, 0x0b, 0x00, 0x00, 0x00, 0x0c, 0x00, 0x00, 0x00,
  0xc6, 0xff, 0xff, 0xff, 0x14, 0x00, 0x00, 0x00, 0x00, 0x00, 0x00, 0x08,
  0x14, 0x00, 0x00, 0x00, 0x18, 0x00, 0x00, 0x00, 0x01, 0x00, 0x00, 0x00,
  0x6e, 0xff, 0xff, 0xff, 0x00, 0x00, 0x00, 0x01, 0x01, 0x00, 0x00, 0x00,
  0x0a, 0x00, 0x00, 0x00, 0x03, 0x00, 0x00, 0x00, 0x07, 0x00, 0x00, 0x00,
  0x08, 0x00, 0x00, 0x00, 0x09, 0x00, 0x00, 0x00, 0x00, 0x00, 0x0e, 0x00,
  0x18, 0x00, 0x14, 0x00, 0x10, 0x00, 0x0c, 0x00, 0x0b, 0x00, 0x04, 0x00,
  0x0e, 0x00, 0x00, 0x00, 0x14, 0x00, 0x00, 0x00, 0x00, 0x00, 0x00, 0x08,
  0x14, 0x00, 0x00, 0x00, 0x18, 0x00, 0x00, 0x00, 0x01, 0x00, 0x00, 0x00,
  0xb6, 0xff, 0xff, 0xff, 0x00, 0x00, 0x00, 0x01, 0x01, 0x00, 0x00, 0x00,
  0x07, 0x00, 0x00, 0x00, 0x03, 0x00, 0x00, 0x00, 0x04, 0x00, 0x00, 0x00,
  0x05, 0x00, 0x00, 0x00, 0x06, 0x00, 0x00, 0x00, 0x00, 0x00, 0x0e, 0x00,
  0x1a, 0x00, 0x14, 0x00, 0x10, 0x00, 0x0c, 0x00, 0x0b, 0x00, 0x04, 0x00,
  0x0e, 0x00, 0x00, 0x00, 0x1c, 0x00, 0x00, 0x00, 0x00, 0x00, 0x00, 0x08,
  0x1c, 0x00, 0x00, 0x00, 0x20, 0x00, 0x00, 0x00, 0x01, 0x00, 0x00, 0x00,
  0x00, 0x00, 0x06, 0x00, 0x08, 0x00, 0x07, 0x00, 0x06, 0x00, 0x00, 0x00,
  0x00, 0x00, 0x00, 0x01, 0x01, 0x00, 0x00, 0x00, 0x04, 0x00, 0x00, 0x00,
  0x03, 0x00, 0x00, 0x00, 0x01, 0x00, 0x00, 0x00, 0x02, 0x00, 0x00, 0x00,
  0x03, 0x00, 0x00, 0x00, 0x00, 0x00, 0x0a, 0x00, 0x0c, 0x00, 0x00, 0x00,
  0x08, 0x00, 0x04, 0x00, 0x0a, 0x00, 0x00, 0x00, 0x08, 0x00, 0x00, 0x00,
  0x0c, 0x00, 0x00, 0x00, 0x01, 0x00, 0x00, 0x00, 0x01, 0x00, 0x00, 0x00,
  0x01, 0x00, 0x00, 0x00, 0x00, 0x00, 0x00, 0x00, 0x01, 0x00, 0x00, 0x00,
  0x11, 0x00, 0x00, 0x00, 0x01, 0x00, 0x00, 0x00, 0x00, 0x00, 0x00, 0x00,
  0x12, 0x00, 0x00, 0x00, 0xdc, 0x0a, 0x00, 0x00, 0x08, 0x0a, 0x00, 0x00,
  0x38, 0x09, 0x00, 0x00, 0xbc, 0x08, 0x00, 0x00, 0xf0, 0x07, 0x00, 0x00,
  0x34, 0x07, 0x00, 0x00, 0xd0, 0x06, 0x00, 0x00, 0x04, 0x06, 0x00, 0x00,
  0x48, 0x05, 0x00, 0x00, 0xe4, 0x04, 0x00, 0x00, 0x18, 0x04, 0x00, 0x00,
  0x5c, 0x03, 0x00, 0x00, 0xf8, 0x02, 0x00, 0x00, 0x2c, 0x02, 0x00, 0x00,
  0x70, 0x01, 0x00, 0x00, 0x0c, 0x01, 0x00, 0x00, 0x60, 0x00, 0x00, 0x00,
  0x04, 0x00, 0x00, 0x00, 0x82, 0xf5, 0xff, 0xff, 0x00, 0x00, 0x00, 0x01,
  0x14, 0x00, 0x00, 0x00, 0x1c, 0x00, 0x00, 0x00, 0x1c, 0x00, 0x00, 0x00,
  0x12, 0x00, 0x00, 0x00, 0x34, 0x00, 0x00, 0x00, 0x02, 0x00, 0x00, 0x00,
  0xff, 0xff, 0xff, 0xff, 0x02, 0x00, 0x00, 0x00, 0x6c, 0xf5, 0xff, 0xff,
  0x19, 0x00, 0x00, 0x00, 0x53, 0x74, 0x61, 0x74, 0x65, 0x66, 0x75, 0x6c,
  0x50, 0x61, 0x72, 0x74, 0x69, 0x74, 0x69, 0x6f, 0x6e, 0x65, 0x64, 0x43,
  0x61, 0x6c, 0x6c, 0x3a, 0x30, 0x00, 0x00, 0x00, 0x02, 0x00, 0x00, 0x00,
  0x01, 0x00, 0x00, 0x00, 0x02, 0x00, 0x00, 0x00, 0xaa, 0xf6, 0xff, 0xff,
  0x00, 0x00, 0x00, 0x01, 0x18, 0x00, 0x00, 0x00, 0x20, 0x00, 0x00, 0x00,
  0x40, 0x00, 0x00, 0x00, 0x11, 0x00, 0x00, 0x00, 0x00, 0x00, 0x00, 0x09,
  0x80, 0x00, 0x00, 0x00, 0x02, 0x00, 0x00, 0x00, 0xff, 0xff, 0xff, 0xff,
  0x02, 0x00, 0x00, 0x00, 0x94, 0xf6, 0xff, 0xff, 0x08, 0x00, 0x00, 0x00,
  0x14, 0x00, 0x00, 0x00, 0x01, 0x00, 0x00, 0x00, 0x81, 0xff, 0xff, 0xff,
  0xff, 0xff, 0xff, 0xff, 0x00, 0x00, 0x00, 0x00, 0x01, 0x00, 0x00, 0x00,
  0xe7, 0x22, 0xca, 0x3e, 0x46, 0x00, 0x00, 0x00, 0x73, 0x65, 0x71, 0x75,
  0x65, 0x6e, 0x74, 0x69, 0x61, 0x6c, 0x5f, 0x32, 0x2f, 0x71, 0x75, 0x61,
  0x6e, 0x74, 0x5f, 0x64, 0x65, 0x6e, 0x73, 0x65, 0x5f, 0x31, 0x34, 0x2f,
  0x4d, 0x61, 0x74, 0x4d, 0x75, 0x6c, 0x3b, 0x73, 0x65, 0x71, 0x75, 0x65,
  0x6e, 0x74, 0x69, 0x61, 0x6c, 0x5f, 0x32, 0x2f, 0x71, 0x75, 0x61, 0x6e,
  0x74, 0x5f, 0x64, 0x65, 0x6e, 0x73, 0x65, 0x5f, 0x31, 0x34, 0x2f, 0x42,
  0x69, 0x61, 0x73, 0x41, 0x64, 0x64, 0x00, 0x00, 0x02, 0x00, 0x00, 0x00,
  0x01, 0x00, 0x00, 0x00, 0x02, 0x00, 0x00, 0x00, 0x1e, 0xf8, 0xff, 0xff,
  0x00, 0x00, 0x00, 0x01, 0x14, 0x00, 0x00, 0x00, 0x34, 0x00, 0x00, 0x00,
  0x10, 0x00, 0x00, 0x00, 0x00, 0x00, 0x00, 0x02, 0x40, 0x00, 0x00, 0x00,
  0x2c, 0xf7, 0xff, 0xff, 0x08, 0x00, 0x00, 0x00, 0x14, 0x00, 0x00, 0x00,
  0x01, 0x00, 0x00, 0x00, 0x00, 0x00, 0x00, 0x00, 0x00, 0x00, 0x00, 0x00,
  0x00, 0x00, 0x00, 0x00, 0x01, 0x00, 0x00, 0x00, 0x62, 0x96, 0x70, 0x3c,
  0x12, 0x00, 0x00, 0x00, 0x74, 0x66, 0x6c, 0x2e, 0x70, 0x73, 0x65, 0x75,
  0x64, 0x6f, 0x5f, 0x71, 0x63, 0x6f, 0x6e, 0x73, 0x74, 0x34, 0x00, 0x00,
  0x01, 0x00, 0x00, 0x00, 0x02, 0x00, 0x00, 0x00, 0x7e, 0xf8, 0xff, 0xff,
  0x00, 0x00, 0x00, 0x01, 0x14, 0x00, 0x00, 0x00, 0x34, 0x00, 0x00, 0x00,
  0x0f, 0x00, 0x00, 0x00, 0x00, 0x00, 0x00, 0x09, 0x94, 0x00, 0x00, 0x00,
  0x8c, 0xf7, 0xff, 0xff, 0x08, 0x00, 0x00, 0x00, 0x14, 0x00, 0x00, 0x00,
  0x01, 0x00, 0x00, 0x00, 0x00, 0x00, 0x00, 0x00, 0x00, 0x00, 0x00, 0x00,
  0x00, 0x00, 0x00, 0x00, 0x01, 0x00, 0x00, 0x00, 0x28, 0xe5, 0x6e, 0x3b,
  0x65, 0x00, 0x00, 0x00, 0x73, 0x65, 0x71, 0x75, 0x65, 0x6e, 0x74, 0x69,
  0x61, 0x6c, 0x5f, 0x32, 0x2f, 0x71, 0x75, 0x61, 0x6e, 0x74, 0x5f, 0x64,
  0x65, 0x6e, 0x73, 0x65, 0x5f, 0x31, 0x34, 0x2f, 0x4d, 0x61, 0x74, 0x4d,
  0x75, 0x6c, 0x3b, 0x73, 0x65, 0x71, 0x75, 0x65, 0x6e, 0x74, 0x69, 0x61,
  0x6c, 0x5f, 0x32, 0x2f, 0x71, 0x75, 0x61, 0x6e, 0x74, 0x5f, 0x64, 0x65,
  0x6e, 0x73, 0x65, 0x5f, 0x31, 0x34, 0x2f, 0x4c, 0x61, 0x73, 0x74, 0x56,
  0x61, 0x6c, 0x75, 0x65, 0x51, 0x75, 0x61, 0x6e, 0x74, 0x2f, 0x46, 0x61,
  0x6b, 0x65, 0x51, 0x75, 0x61, 0x6e, 0x74, 0x57, 0x69, 0x74, 0x68, 0x4d,
  0x69, 0x6e, 0x4d, 0x61, 0x78, 0x56, 0x61, 0x72, 0x73, 0x00, 0x00, 0x00,
  0x02, 0x00, 0x00, 0x00, 0x02, 0x00, 0x00, 0x00, 0x08, 0x00, 0x00, 0x00,
  0x6a, 0xf8, 0xff, 0xff, 0x00, 0x00, 0x00, 0x01, 0x18, 0x00, 0x00, 0x00,
  0x20, 0x00, 0x00, 0x00, 0x40, 0x00, 0x00, 0x00, 0x0e, 0x00, 0x00, 0x00,
  0x00, 0x00, 0x00, 0x09, 0xa0, 0x00, 0x00, 0x00, 0x02, 0x00, 0x00, 0x00,
  0xff, 0xff, 0xff, 0xff, 0x08, 0x00, 0x00, 0x00, 0x54, 0xf8, 0xff, 0xff,
  0x08, 0x00, 0x00, 0x00, 0x14, 0x00, 0x00, 0x00, 0x01, 0x00, 0x00, 0x00,
  0x80, 0xff, 0xff, 0xff, 0xff, 0xff, 0xff, 0xff, 0x00, 0x00, 0x00, 0x00,
  0x01, 0x00, 0x00, 0x00, 0x1f, 0xe8, 0x80, 0x40, 0x67, 0x00, 0x00, 0x00,
  0x73, 0x65, 0x71, 0x75, 0x65, 0x6e, 0x74, 0x69, 0x61, 0x6c, 0x5f, 0x32,
  0x2f, 0x71, 0x75, 0x61, 0x6e, 0x74, 0x5f, 0x64, 0x65, 0x6e, 0x73, 0x65,
  0x5f, 0x31, 0x33, 0x2f, 0x4d, 0x61, 0x74, 0x4d, 0x75, 0x6c, 0x3b, 0x73,
  0x65, 0x71, 0x75, 0x65, 0x6e, 0x74, 0x69, 0x61, 0x6c, 0x5f, 0x32, 0x2f,
  0x71, 0x75, 0x61, 0x6e, 0x74, 0x5f, 0x64, 0x65, 0x6e, 0x73, 0x65, 0x5f,
  0x31, 0x33, 0x2f, 0x52, 0x65, 0x6c, 0x75, 0x3b, 0x73, 0x65, 0x71, 0x75,
  0x65, 0x6e, 0x74, 0x69, 0x61, 0x6c, 0x5f, 0x32, 0x2f, 0x71, 0x75, 0x61,
  0x6e, 0x74, 0x5f, 0x64, 0x65, 0x6e, 0x73, 0x65, 0x5f, 0x31, 0x33, 0x2f,
  0x42, 0x69, 0x61, 0x73, 0x41, 0x64, 0x64, 0x00, 0x02, 0x00, 0x00, 0x00,
  0x01, 0x00, 0x00, 0x00, 0x08, 0x00, 0x00, 0x00, 0xfe, 0xf9, 0xff, 0xff,
  0x00, 0x00, 0x00, 0x01, 0x14, 0x00, 0x00, 0x00, 0x34, 0x00, 0x00, 0x00,
  0x0d, 0x00, 0x00, 0x00, 0x00, 0x00, 0x00, 0x02, 0x40, 0x00, 0x00, 0x00,
  0x0c, 0xf9, 0xff, 0xff, 0x08, 0x00, 0x00, 0x00, 0x14, 0x00, 0x00, 0x00,
  0x01, 0x00, 0x00, 0x00, 0x00, 0x00, 0x00, 0x00, 0x00, 0x00, 0x00, 0x00,
  0x00, 0x00, 0x00, 0x00, 0x01, 0x00, 0x00, 0x00, 0xe9, 0x84, 0xcc, 0x3c,
  0x11, 0x00, 0x00, 0x00, 0x74, 0x66, 0x6c, 0x2e, 0x70, 0x73, 0x65, 0x75,
  0x64, 0x6f, 0x5f, 0x71, 0x63, 0x6f, 0x6e, 0x73, 0x74, 0x00, 0x00, 0x00,
  0x01, 0x00, 0x00, 0x00, 0x08, 0x00, 0x00, 0x00, 0x5e, 0xfa, 0xff, 0xff,
  0x00, 0x00, 0x00, 0x01, 0x14, 0x00, 0x00, 0x00, 0x34, 0x00, 0x00, 0x00,
  0x0c, 0x00, 0x00, 0x00, 0x00, 0x00, 0x00, 0x09, 0x94, 0x00, 0x00, 0x00,
  0x6c, 0xf9, 0xff, 0xff, 0x08, 0x00, 0x00, 0x00, 0x14, 0x00, 0x00, 0x00,
  0x01, 0x00, 0x00, 0x00, 0x00, 0x00, 0x00, 0x00, 0x00, 0x00, 0x00, 0x00,
  0x00, 0x00, 0x00, 0x00, 0x01, 0x00, 0x00, 0x00, 0x4a, 0x2a, 0xc6, 0x3c,
  0x65, 0x00, 0x00, 0x00, 0x73, 0x65, 0x71, 0x75, 0x65, 0x6e, 0x74, 0x69,
  0x61, 0x6c, 0x5f, 0x32, 0x2f, 0x71, 0x75, 0x61, 0x6e, 0x74, 0x5f, 0x64,
  0x65, 0x6e, 0x73, 0x65, 0x5f, 0x31, 0x33, 0x2f, 0x4d, 0x61, 0x74, 0x4d,
  0x75, 0x6c, 0x3b, 0x73, 0x65, 0x71, 0x75, 0x65, 0x6e, 0x74, 0x69, 0x61,
  0x6c, 0x5f, 0x32, 0x2f, 0x71, 0x75, 0x61, 0x6e, 0x74, 0x5f, 0x64, 0x65,
  0x6e, 0x73, 0x65, 0x5f, 0x31, 0x33, 0x2f, 0x4c, 0x61, 0x73, 0x74, 0x56,
  0x61, 0x6c, 0x75, 0x65, 0x51, 0x75, 0x61, 0x6e, 0x74, 0x2f, 0x46, 0x61,
  0x6b, 0x65, 0x51, 0x75, 0x61, 0x6e, 0x74, 0x57, 0x69, 0x74, 0x68, 0x4d,
  0x69, 0x6e, 0x4d, 0x61, 0x78, 0x56, 0x61, 0x72, 0x73, 0x00, 0x00, 0x00,
  0x02, 0x00, 0x00, 0x00, 0x08, 0x00, 0x00, 0x00, 0x10, 0x00, 0x00, 0x00,
  0x4a, 0xfa, 0xff, 0xff, 0x00, 0x00, 0x00, 0x01, 0x18, 0x00, 0x00, 0x00,
  0x20, 0x00, 0x00, 0x00, 0x40, 0x00, 0x00, 0x00, 0x0b, 0x00, 0x00, 0x00,
  0x00, 0x00, 0x00, 0x09, 0xa0, 0x00, 0x00, 0x00, 0x02, 0x00, 0x00, 0x00,
  0xff, 0xff, 0xff, 0xff, 0x10, 0x00, 0x00, 0x00, 0x34, 0xfa, 0xff, 0xff,
  0x08, 0x00, 0x00, 0x00, 0x14, 0x00, 0x00, 0x00, 0x01, 0x00, 0x00, 0x00,
  0x80, 0xff, 0xff, 0xff, 0xff, 0xff, 0xff, 0xff, 0x00, 0x00, 0x00, 0x00,
  0x01, 0x00, 0x00, 0x00, 0xae, 0x1a, 0x84, 0x3f, 0x67, 0x00, 0x00, 0x00,
  0x73, 0x65, 0x71, 0x75, 0x65, 0x6e, 0x74, 0x69, 0x61, 0x6c, 0x5f, 0x32,
  0x2f, 0x71, 0x75, 0x61, 0x6e, 0x74, 0x5f, 0x64, 0x65, 0x6e, 0x73, 0x65,
  0x5f, 0x31, 0x32, 0x2f, 0x4d, 0x61, 0x74, 0x4d, 0x75, 0x6c, 0x3b, 0x73,
  0x65, 0x71, 0x75, 0x65, 0x6e, 0x74, 0x69, 0x61, 0x6c, 0x5f, 0x32, 0x2f,
  0x71, 0x75, 0x61, 0x6e, 0x74, 0x5f, 0x64, 0x65, 0x6e, 0x73, 0x65, 0x5f,
  0x31, 0x32, 0x2f, 0x52, 0x65, 0x6c, 0x75, 0x3b, 0x73, 0x65, 0x71, 0x75,
  0x65, 0x6e, 0x74, 0x69, 0x61, 0x6c, 0x5f, 0x32, 0x2f, 0x71, 0x75, 0x61,
  0x6e, 0x74, 0x5f, 0x64, 0x65, 0x6e, 0x73, 0x65, 0x5f, 0x31, 0x32, 0x2f,
  0x42, 0x69, 0x61, 0x73, 0x41, 0x64, 0x64, 0x00, 0x02, 0x00, 0x00, 0x00,
  0x01, 0x00, 0x00, 0x00, 0x10, 0x00, 0x00, 0x00, 0xde, 0xfb, 0xff, 0xff,
  0x00, 0x00, 0x00, 0x01, 0x14, 0x00, 0x00, 0x00, 0x34, 0x00, 0x00, 0x00,
  0x0a, 0x00, 0x00, 0x00, 0x00, 0x00, 0x00, 0x02, 0x40, 0x00, 0x00, 0x00,
  0xec, 0xfa, 0xff, 0xff, 0x08, 0x00, 0x00, 0x00, 0x14, 0x00, 0x00, 0x00,
  0x01, 0x00, 0x00, 0x00, 0x00, 0x00, 0x00, 0x00, 0x00, 0x00, 0x00, 0x00,
  0x00, 0x00, 0x00, 0x00, 0x01, 0x00, 0x00, 0x00, 0xf7, 0x56, 0xbe, 0x3c,
  0x12, 0x00, 0x00, 0x00, 0x74, 0x66, 0x6c, 0x2e, 0x70, 0x73, 0x65, 0x75,
  0x64, 0x6f, 0x5f, 0x71, 0x63, 0x6f, 0x6e, 0x73, 0x74, 0x31, 0x00, 0x00,
  0x01, 0x00, 0x00, 0x00, 0x10, 0x00, 0x00, 0x00, 0x3e, 0xfc, 0xff, 0xff,
  0x00, 0x00, 0x00, 0x01, 0x14, 0x00, 0x00, 0x00, 0x34, 0x00, 0x00, 0x00,
  0x09, 0x00, 0x00, 0x00, 0x00, 0x00, 0x00, 0x09, 0x94, 0x00, 0x00, 0x00,
  0x4c, 0xfb, 0xff, 0xff, 0x08, 0x00, 0x00, 0x00, 0x14, 0x00, 0x00, 0x00,
  0x01, 0x00, 0x00, 0x00, 0x00, 0x00, 0x00, 0x00, 0x00, 0x00, 0x00, 0x00,
  0x00, 0x00, 0x00, 0x00, 0x01, 0x00, 0x00, 0x00, 0xe8, 0x8f, 0x3e, 0x3c,
  0x65, 0x00, 0x00, 0x00, 0x73, 0x65, 0x71, 0x75, 0x65, 0x6e, 0x74, 0x69,
  0x61, 0x6c, 0x5f, 0x32, 0x2f, 0x71, 0x75, 0x61, 0x6e, 0x74, 0x5f, 0x64,
  0x65, 0x6e, 0x73, 0x65, 0x5f, 0x31, 0x32, 0x2f, 0x4d, 0x61, 0x74, 0x4d,
  0x75, 0x6c, 0x3b, 0x73, 0x65, 0x71, 0x75, 0x65, 0x6e, 0x74, 0x69, 0x61,
  0x6c, 0x5f, 0x32, 0x2f, 0x71, 0x75, 0x61, 0x6e, 0x74, 0x5f, 0x64, 0x65,
  0x6e, 0x73, 0x65, 0x5f, 0x31, 0x32, 0x2f, 0x4c, 0x61, 0x73, 0x74, 0x56,
  0x61, 0x6c, 0x75, 0x65, 0x51, 0x75, 0x61, 0x6e, 0x74, 0x2f, 0x46, 0x61,
  0x6b, 0x65, 0x51, 0x75, 0x61, 0x6e, 0x74, 0x57, 0x69, 0x74, 0x68, 0x4d,
  0x69, 0x6e, 0x4d, 0x61, 0x78, 0x56, 0x61, 0x72, 0x73, 0x00, 0x00, 0x00,
  0x02, 0x00, 0x00, 0x00, 0x10, 0x00, 0x00, 0x00, 0x20, 0x00, 0x00, 0x00,
  0x2a, 0xfc, 0xff, 0xff, 0x00, 0x00, 0x00, 0x01, 0x18, 0x00, 0x00, 0x00,
  0x20, 0x00, 0x00, 0x00, 0x40, 0x00, 0x00, 0x00, 0x08, 0x00, 0x00, 0x00,
  0x00, 0x00, 0x00, 0x09, 0xa0, 0x00, 0x00, 0x00, 0x02, 0x00, 0x00, 0x00,
  0xff, 0xff, 0xff, 0xff, 0x20, 0x00, 0x00, 0x00, 0x14, 0xfc, 0xff, 0xff,
  0x08, 0x00, 0x00, 0x00, 0x14, 0x00, 0x00, 0x00, 0x01, 0x00, 0x00, 0x00,
  0x80, 0xff, 0xff, 0xff, 0xff, 0xff, 0xff, 0xff, 0x00, 0x00, 0x00, 0x00,
  0x01, 0x00, 0x00, 0x00, 0x82, 0xb3, 0xff, 0x3f, 0x67, 0x00, 0x00, 0x00,
  0x73, 0x65, 0x71, 0x75, 0x65, 0x6e, 0x74, 0x69, 0x61, 0x6c, 0x5f, 0x32,
  0x2f, 0x71, 0x75, 0x61, 0x6e, 0x74, 0x5f, 0x64, 0x65, 0x6e, 0x73, 0x65,
  0x5f, 0x31, 0x31, 0x2f, 0x4d, 0x61, 0x74, 0x4d, 0x75, 0x6c, 0x3b, 0x73,
  0x65, 0x71, 0x75, 0x65, 0x6e, 0x74, 0x69, 0x61, 0x6c, 0x5f, 0x32, 0x2f,
  0x71, 0x75, 0x61, 0x6e, 0x74, 0x5f, 0x64, 0x65, 0x6e, 0x73, 0x65, 0x5f,
  0x31, 0x31, 0x2f, 0x52, 0x65, 0x6c, 0x75, 0x3b, 0x73, 0x65, 0x71, 0x75,
  0x65, 0x6e, 0x74, 0x69, 0x61, 0x6c, 0x5f, 0x32, 0x2f, 0x71, 0x75, 0x61,
  0x6e, 0x74, 0x5f, 0x64, 0x65, 0x6e, 0x73, 0x65, 0x5f, 0x31, 0x31, 0x2f,
  0x42, 0x69, 0x61, 0x73, 0x41, 0x64, 0x64, 0x00, 0x02, 0x00, 0x00, 0x00,
  0x01, 0x00, 0x00, 0x00, 0x20, 0x00, 0x00, 0x00, 0xbe, 0xfd, 0xff, 0xff,
  0x00, 0x00, 0x00, 0x01, 0x14, 0x00, 0x00, 0x00, 0x34, 0x00, 0x00, 0x00,
  0x07, 0x00, 0x00, 0x00, 0x00, 0x00, 0x00, 0x02, 0x40, 0x00, 0x00, 0x00,
  0xcc, 0xfc, 0xff, 0xff, 0x08, 0x00, 0x00, 0x00, 0x14, 0x00, 0x00, 0x00,
  0x01, 0x00, 0x00, 0x00, 0x00, 0x00, 0x00, 0x00, 0x00, 0x00, 0x00, 0x00,
  0x00, 0x00, 0x00, 0x00, 0x01, 0x00, 0x00, 0x00, 0xd0, 0x03, 0x50, 0x3b,
  0x12, 0x00, 0x00, 0x00, 0x74, 0x66, 0x6c, 0x2e, 0x70, 0x73, 0x65, 0x75,
  0x64, 0x6f, 0x5f, 0x71, 0x63, 0x6f, 0x6e, 0x73, 0x74, 0x32, 0x00, 0x00,
  0x01, 0x00, 0x00, 0x00, 0x20, 0x00, 0x00, 0x00, 0x1e, 0xfe, 0xff, 0xff,
  0x00, 0x00, 0x00, 0x01, 0x14, 0x00, 0x00, 0x00, 0x34, 0x00, 0x00, 0x00,
  0x06, 0x00, 0x00, 0x00, 0x00, 0x00, 0x00, 0x09, 0x94, 0x00, 0x00, 0x00,
  0x2c, 0xfd, 0xff, 0xff, 0x08, 0x00, 0x00, 0x00, 0x14, 0x00, 0x00, 0x00,
  0x01, 0x00, 0x00, 0x00, 0x00, 0x00, 0x00, 0x00, 0x00, 0x00, 0x00, 0x00,
  0x00, 0x00, 0x00, 0x00, 0x01, 0x00, 0x00, 0x00, 0xd3, 0xeb, 0xa0, 0x3c,
  0x65, 0x00, 0x00, 0x00, 0x73, 0x65, 0x71, 0x75, 0x65, 0x6e, 0x74, 0x69,
  0x61, 0x6c, 0x5f, 0x32, 0x2f, 0x71, 0x75, 0x61, 0x6e, 0x74, 0x5f, 0x64,
  0x65, 0x6e, 0x73, 0x65, 0x5f, 0x31, 0x31, 0x2f, 0x4d, 0x61, 0x74, 0x4d,
  0x75, 0x6c, 0x3b, 0x73, 0x65, 0x71, 0x75, 0x65, 0x6e, 0x74, 0x69, 0x61,
  0x6c, 0x5f, 0x32, 0x2f, 0x71, 0x75, 0x61, 0x6e, 0x74, 0x5f, 0x64, 0x65,
  0x6e, 0x73, 0x65, 0x5f, 0x31, 0x31, 0x2f, 0x4c, 0x61, 0x73, 0x74, 0x56,
  0x61, 0x6c, 0x75, 0x65, 0x51, 0x75, 0x61, 0x6e, 0x74, 0x2f, 0x46, 0x61,
  0x6b, 0x65, 0x51, 0x75, 0x61, 0x6e, 0x74, 0x57, 0x69, 0x74, 0x68, 0x4d,
  0x69, 0x6e, 0x4d, 0x61, 0x78, 0x56, 0x61, 0x72, 0x73, 0x00, 0x00, 0x00,
  0x02, 0x00, 0x00, 0x00, 0x20, 0x00, 0x00, 0x00, 0x20, 0x00, 0x00, 0x00,
  0x0a, 0xfe, 0xff, 0xff, 0x00, 0x00, 0x00, 0x01, 0x18, 0x00, 0x00, 0x00,
  0x20, 0x00, 0x00, 0x00, 0x40, 0x00, 0x00, 0x00, 0x05, 0x00, 0x00, 0x00,
  0x00, 0x00, 0x00, 0x09, 0xa0, 0x00, 0x00, 0x00, 0x02, 0x00, 0x00, 0x00,
  0xff, 0xff, 0xff, 0xff, 0x20, 0x00, 0x00, 0x00, 0xf4, 0xfd, 0xff, 0xff,
  0x08, 0x00, 0x00, 0x00, 0x14, 0x00, 0x00, 0x00, 0x01, 0x00, 0x00, 0x00,
  0x80, 0xff, 0xff, 0xff, 0xff, 0xff, 0xff, 0xff, 0x00, 0x00, 0x00, 0x00,
  0x01, 0x00, 0x00, 0x00, 0x95, 0x75, 0x25, 0x3e, 0x67, 0x00, 0x00, 0x00,
  0x73, 0x65, 0x71, 0x75, 0x65, 0x6e, 0x74, 0x69, 0x61, 0x6c, 0x5f, 0x32,
  0x2f, 0x71, 0x75, 0x61, 0x6e, 0x74, 0x5f, 0x64, 0x65, 0x6e, 0x73, 0x65,
  0x5f, 0x31, 0x30, 0x2f, 0x4d, 0x61, 0x74, 0x4d, 0x75, 0x6c, 0x3b, 0x73,
  0x65, 0x71, 0x75, 0x65, 0x6e, 0x74, 0x69, 0x61, 0x6c, 0x5f, 0x32, 0x2f,
  0x71, 0x75, 0x61, 0x6e, 0x74, 0x5f, 0x64, 0x65, 0x6e, 0x73, 0x65, 0x5f,
  0x31, 0x30, 0x2f, 0x52, 0x65, 0x6c, 0x75, 0x3b, 0x73, 0x65, 0x71, 0x75,
  0x65, 0x6e, 0x74, 0x69, 0x61, 0x6c, 0x5f, 0x32, 0x2f, 0x71, 0x75, 0x61,
  0x6e, 0x74, 0x5f, 0x64, 0x65, 0x6e, 0x73, 0x65, 0x5f, 0x31, 0x30, 0x2f,
  0x42, 0x69, 0x61, 0x73, 0x41, 0x64, 0x64, 0x00, 0x02, 0x00, 0x00, 0x00,
  0x01, 0x00, 0x00, 0x00, 0x20, 0x00, 0x00, 0x00, 0x9e, 0xff, 0xff, 0xff,
  0x00, 0x00, 0x00, 0x01, 0x14, 0x00, 0x00, 0x00, 0x34, 0x00, 0x00, 0x00,
  0x04, 0x00, 0x00, 0x00, 0x00, 0x00, 0x00, 0x02, 0x40, 0x00, 0x00, 0x00,
  0xac, 0xfe, 0xff, 0xff, 0x08, 0x00, 0x00, 0x00, 0x14, 0x00, 0x00, 0x00,
  0x01, 0x00, 0x00, 0x00, 0x00, 0x00, 0x00, 0x00, 0x00, 0x00, 0x00, 0x00,
  0x00, 0x00, 0x00, 0x00, 0x01, 0x00, 0x00, 0x00, 0x5a, 0x8c, 0x2d, 0x3b,
  0x12, 0x00, 0x00, 0x00, 0x74, 0x66, 0x6c, 0x2e, 0x70, 0x73, 0x65, 0x75,
  0x64, 0x6f, 0x5f, 0x71, 0x63, 0x6f, 0x6e, 0x73, 0x74, 0x33, 0x00, 0x00,
  0x01, 0x00, 0x00, 0x00, 0x20, 0x00, 0x00, 0x00, 0x00, 0x00, 0x16, 0x00,
  0x1c, 0x00, 0x18, 0x00, 0x17, 0x00, 0x10, 0x00, 0x0c, 0x00, 0x08, 0x00,
  0x00, 0x00, 0x00, 0x00, 0x00, 0x00, 0x07, 0x00, 0x16, 0x00, 0x00, 0x00,
  0x00, 0x00, 0x00, 0x01, 0x14, 0x00, 0x00, 0x00, 0x30, 0x00, 0x00, 0x00,
  0x03, 0x00, 0x00, 0x00, 0x00, 0x00, 0x00, 0x09, 0x90, 0x00, 0x00, 0x00,
  0x24, 0xff, 0xff, 0xff, 0x08, 0x00, 0x00, 0x00, 0x10, 0x00, 0x00, 0x00,
  0x01, 0x00, 0x00, 0x00, 0x00, 0x00, 0x00, 0x00, 0x00, 0x00, 0x00, 0x00,
  0x01, 0x00, 0x00, 0x00, 0x44, 0x85, 0x38, 0x3c, 0x65, 0x00, 0x00, 0x00,
  0x73, 0x65, 0x71, 0x75, 0x65, 0x6e, 0x74, 0x69, 0x61, 0x6c, 0x5f, 0x32,
  0x2f, 0x71, 0x75, 0x61, 0x6e, 0x74, 0x5f, 0x64, 0x65, 0x6e, 0x73, 0x65,
  0x5f, 0x31, 0x30, 0x2f, 0x4d, 0x61, 0x74, 0x4d, 0x75, 0x6c, 0x3b, 0x73,
  0x65, 0x71, 0x75, 0x65, 0x6e, 0x74, 0x69, 0x61, 0x6c, 0x5f, 0x32, 0x2f,
  0x71, 0x75, 0x61, 0x6e, 0x74, 0x5f, 0x64, 0x65, 0x6e, 0x73, 0x65, 0x5f,
  0x31, 0x30, 0x2f, 0x4c, 0x61, 0x73, 0x74, 0x56, 0x61, 0x6c, 0x75, 0x65,
  0x51, 0x75, 0x61, 0x6e, 0x74, 0x2f, 0x46, 0x61, 0x6b, 0x65, 0x51, 0x75,
  0x61, 0x6e, 0x74, 0x57, 0x69, 0x74, 0x68, 0x4d, 0x69, 0x6e, 0x4d, 0x61,
  0x78, 0x56, 0x61, 0x72, 0x73, 0x00, 0x00, 0x00, 0x02, 0x00, 0x00, 0x00,
  0x20, 0x00, 0x00, 0x00, 0x03, 0x00, 0x00, 0x00, 0x00, 0x00, 0x16, 0x00,
  0x20, 0x00, 0x1c, 0x00, 0x1b, 0x00, 0x14, 0x00, 0x10, 0x00, 0x0c, 0x00,
  0x00, 0x00, 0x00, 0x00, 0x08, 0x00, 0x07, 0x00, 0x16, 0x00, 0x00, 0x00,
  0x00, 0x00, 0x00, 0x01, 0x18, 0x00, 0x00, 0x00, 0x2c, 0x00, 0x00, 0x00,
  0x4c, 0x00, 0x00, 0x00, 0x02, 0x00, 0x00, 0x00, 0x00, 0x00, 0x00, 0x09,
  0x90, 0x00, 0x00, 0x00, 0x02, 0x00, 0x00, 0x00, 0xff, 0xff, 0xff, 0xff,
  0x03, 0x00, 0x00, 0x00, 0x0c, 0x00, 0x0c, 0x00, 0x00, 0x00, 0x00, 0x00,
  0x08, 0x00, 0x04, 0x00, 0x0c, 0x00, 0x00, 0x00, 0x08, 0x00, 0x00, 0x00,
  0x14, 0x00, 0x00, 0x00, 0x01, 0x00, 0x00, 0x00, 0xab, 0xff, 0xff, 0xff,
  0xff, 0xff, 0xff, 0xff, 0x00, 0x00, 0x00, 0x00, 0x01, 0x00, 0x00, 0x00,
  0xf9, 0xc6, 0x70, 0x3e, 0x48, 0x00, 0x00, 0x00, 0x73, 0x65, 0x71, 0x75,
  0x65, 0x6e, 0x74, 0x69, 0x61, 0x6c, 0x5f, 0x32, 0x2f, 0x71, 0x75, 0x61,
  0x6e, 0x74, 0x69, 0x7a, 0x65, 0x5f, 0x6c, 0x61, 0x79, 0x65, 0x72, 0x5f,
  0x32, 0x2f, 0x41, 0x6c, 0x6c, 0x56, 0x61, 0x6c, 0x75, 0x65, 0x73, 0x51,
  0x75, 0x61, 0x6e, 0x74, 0x69, 0x7a, 0x65, 0x2f, 0x46, 0x61, 0x6b, 0x65,
  0x51, 0x75, 0x61, 0x6e, 0x74, 0x57, 0x69, 0x74, 0x68, 0x4d, 0x69, 0x6e,
  0x4d, 0x61, 0x78, 0x56, 0x61, 0x72, 0x73, 0x3b, 0x00, 0x00, 0x00, 0x00,
  0x02, 0x00, 0x00, 0x00, 0x01, 0x00, 0x00, 0x00, 0x03, 0x00, 0x00, 0x00,
  0x00, 0x00, 0x16, 0x00, 0x1c, 0x00, 0x18, 0x00, 0x00, 0x00, 0x14, 0x00,
  0x10, 0x00, 0x0c, 0x00, 0x00, 0x00, 0x00, 0x00, 0x08, 0x00, 0x07, 0x00,
  0x16, 0x00, 0x00, 0x00, 0x00, 0x00, 0x00, 0x01, 0x14, 0x00, 0x00, 0x00,
  0x20, 0x00, 0x00, 0x00, 0x20, 0x00, 0x00, 0x00, 0x01, 0x00, 0x00, 0x00,
  0x40, 0x00, 0x00, 0x00, 0x02, 0x00, 0x00, 0x00, 0xff, 0xff, 0xff, 0xff,
  0x03, 0x00, 0x00, 0x00, 0x04, 0x00, 0x04, 0x00, 0x04, 0x00, 0x00, 0x00,
  0x20, 0x00, 0x00, 0x00, 0x73, 0x65, 0x72, 0x76, 0x69, 0x6e, 0x67, 0x5f,
  0x64, 0x65, 0x66, 0x61, 0x75, 0x6c, 0x74, 0x5f, 0x64, 0x65, 0x6e, 0x73,
  0x65, 0x5f, 0x31, 0x30, 0x5f, 0x69, 0x6e, 0x70, 0x75, 0x74, 0x3a, 0x30,
  0x00, 0x00, 0x00, 0x00, 0x02, 0x00, 0x00, 0x00, 0x01, 0x00, 0x00, 0x00,
  0x03, 0x00, 0x00, 0x00, 0x03, 0x00, 0x00, 0x00, 0x44, 0x00, 0x00, 0x00,
  0x24, 0x00, 0x00, 0x00, 0x04, 0x00, 0x00, 0x00, 0xf0, 0xff, 0xff, 0xff,
  0x06, 0x00, 0x00, 0x00, 0x02, 0x00, 0x00, 0x00, 0x00, 0x00, 0x00, 0x06,
  0x0c, 0x00, 0x10, 0x00, 0x0f, 0x00, 0x00, 0x00, 0x08, 0x00, 0x04, 0x00,
  0x0c, 0x00, 0x00, 0x00, 0x09, 0x00, 0x00, 0x00, 0x04, 0x00, 0x00, 0x00,
  0x00, 0x00, 0x00, 0x09, 0x0c, 0x00, 0x0c, 0x00, 0x0b, 0x00, 0x00, 0x00,
  0x00, 0x00, 0x04, 0x00, 0x0c, 0x00, 0x00, 0x00, 0x72, 0x00, 0x00, 0x00,
  0x00, 0x00, 0x00, 0x72
};

const unsigned int sine_model_len = 6304;

#endif // MODEL_H
